<unk>	0
<s>	0
</s>	0
▁ect	-3.59658
▁subject	-4.11879
▁hou	-4.23928
▁enron	-4.34875
▁2000	-4.7304
▁deal	-4.93913
▁please	-5.03014
▁com	-5.0913
▁gas	-5.11365
▁meter	-5.27362
▁hpl	-5.37286
▁000	-5.45683
▁2001	-5.51348
▁daren	-5.56094
▁thanks	-5.56389
▁need	-5.61775
▁corp	-5.64701
▁volume	-5.693
▁know	-5.70824
▁day	-5.72372
▁price	-5.76079
▁company	-5.84128
▁new	-5.88206
▁may	-5.90258
▁get	-5.92458
▁forwarded	-5.94599
▁mmbtu	-5.96126
▁change	-6.00736
▁let	-6.03774
▁information	-6.04369
▁see	-6.07152
▁farmer	-6.07891
▁contract	-6.09134
▁http	-6.09888
▁month	-6.11157
▁time	-6.12313
▁attached	-6.13222
▁would	-6.14534
▁message	-6.20803
▁xl	-6.21509
▁sale	-6.24968
▁one	-6.25703
▁question	-6.26743
▁email	-6.28095
▁mail	-6.30391
▁sitara	-6.32108
▁ticket	-6.33216
▁robert	-6.34016
▁call	-6.35471
▁nomination	-6.37113
▁service	-6.38111
▁nom	-6.40309
▁energy	-6.45035
▁number	-6.45214
▁ena	-6.47209
▁sent	-6.47209
▁www	-6.47392
▁texas	-6.47944
▁also	-6.48499
▁pec	-6.49806
▁report	-6.50183
▁file	-6.51512
▁flow	-6.52473
▁production	-6.53443
▁bob	-6.53638
▁product	-6.54422
▁want	-6.56411
▁order	-6.5803
▁system	-6.63267
▁following	-6.63698
▁like	-6.63698
▁contact	-6.65002
▁make	-6.67215
▁back	-6.70166
▁daily	-6.71092
▁per	-6.7297
▁list	-6.73445
▁business	-6.74402
▁work	-6.76099
▁statement	-6.77329
▁could	-6.77825
▁plant	-6.77825
▁gary	-6.78074
▁713	-6.79582
▁100	-6.8009
▁march	-6.81887
▁effective	-6.82928
▁original	-6.83453
▁stock	-6.84246
▁help	-6.84778
▁year	-6.84778
▁rate	-6.85045
▁week	-6.85313
▁july	-6.8585
▁well	-6.8612
▁forward	-6.86391
▁take	-6.86391
▁free	-6.86662
▁today	-6.86934
▁delivery	-6.87207
▁inc	-6.87207
▁april	-6.87481
▁mary	-6.87481
▁first	-6.88306
▁nbsp	-6.8886
▁security	-6.89138
▁purchase	-6.90259
▁use	-6.90824
▁line	-6.93116
▁group	-6.93406
▁customer	-6.93697
▁issue	-6.94576
▁fuel	-6.96057
▁font	-6.96356
▁houston	-6.97561
▁vance	-6.97865
▁pill	-6.98474
▁within	-6.98474
▁name	-6.99088
▁office	-7.0158
▁next	-7.02213
▁agreement	-7.0317
▁click	-7.03813
▁last	-7.03813
▁look	-7.04461
▁set	-7.05439
▁management	-7.06097
▁january	-7.07092
▁june	-7.07092
▁melissa	-7.07426
▁point	-7.07761
▁phone	-7.08097
▁ami	-7.09453
▁julie	-7.09453
▁net	-7.09453
▁teco	-7.09795
▁transport	-7.09795
▁available	-7.10138
▁thank	-7.10482
▁jackie	-7.11174
▁north	-7.11174
▁offer	-7.11174
▁account	-7.12222
▁america	-7.12573
▁date	-7.12573
▁desk	-7.12573
▁smith	-7.12573
▁market	-7.14349
▁pat	-7.14349
▁term	-7.14349
▁george	-7.14708
▁pipeline	-7.14708
▁request	-7.14708
▁based	-7.1543
▁le	-7.16158
▁think	-7.16158
▁hour	-7.1689
▁fax	-7.17259
▁money	-7.17999
▁note	-7.17999
▁send	-7.18372
▁tenaska	-7.18372
▁total	-7.18746
▁two	-7.19497
▁best	-7.19876
▁online	-7.19876
▁activity	-7.20255
▁made	-7.21018
▁process	-7.21018
▁address	-7.21402
▁oil	-7.21402
▁looking	-7.21788
▁show	-7.22563
▁aimee	-7.23344
▁problem	-7.23737
▁tap	-7.23737
▁david	-7.24132
▁october	-7.24132
▁team	-7.24528
▁due	-7.24925
▁friday	-7.24925
▁mark	-7.26128
▁2004	-7.26532
▁august	-7.26532
▁actuals	-7.26937
▁investment	-7.27345
▁michael	-7.27345
▁give	-7.27754
▁high	-7.27754
▁people	-7.27754
▁resource	-7.28164
▁lisa	-7.29407
▁susan	-7.29407
▁hsc	-7.29824
▁cotten	-7.30243
▁link	-7.30664
▁transaction	-7.31087
▁future	-7.31512
▁taylor	-7.31512
▁noms	-7.32797
▁september	-7.32797
▁steve	-7.32797
▁feb	-7.33229
▁find	-7.33229
▁many	-7.33229
▁special	-7.34975
▁chokshi	-7.35417
▁february	-7.3586
▁risk	-7.3586
▁sure	-7.3586
▁fyi	-7.37203
▁going	-7.38563
▁unify	-7.38563
▁meeting	-7.39021
▁good	-7.39481
▁place	-7.39481
▁currently	-7.39943
▁november	-7.40407
▁receive	-7.40407
▁size	-7.40407
▁still	-7.40407
▁supply	-7.40407
▁end	-7.41812
▁cost	-7.42285
▁said	-7.42285
▁window	-7.42285
▁john	-7.4276
▁software	-7.4276
▁fee	-7.43237
▁employee	-7.43717
▁invoice	-7.43717
▁right	-7.43717
▁check	-7.44199
▁december	-7.44199
▁eastrans	-7.44199
▁500	-7.44683
▁save	-7.45169
▁manager	-7.45658
▁monday	-7.4615
▁pay	-7.4615
▁spot	-7.4615
▁plan	-7.4714
▁possible	-7.4714
▁trading	-7.4714
▁actual	-7.47639
▁soon	-7.4814
▁duke	-7.48644
▁megan	-7.4915
▁natural	-7.4915
▁site	-7.4915
▁utility	-7.4915
▁without	-7.4915
▁internet	-7.49659
▁tom	-7.49659
▁counterparty	-7.50171
▁million	-7.50171
▁trade	-7.50685
▁clynes	-7.51201
▁copy	-7.51201
▁received	-7.51721
▁data	-7.52243
▁info	-7.52768
▁news	-7.52768
▁way	-7.53296
▁young	-7.53296
▁buy	-7.53826
▁estimate	-7.53826
▁keep	-7.53826
▁state	-7.53826
▁additional	-7.5436
▁home	-7.54896
▁control	-7.55435
▁great	-7.55435
▁lee	-7.55435
▁wellhead	-7.55435
▁global	-7.55977
▁program	-7.55977
▁come	-7.5707
▁share	-7.5707
▁jan	-7.57621
▁much	-7.57621
▁height	-7.58175
▁review	-7.58175
▁since	-7.58175
▁access	-7.58732
▁microsoft	-7.58732
▁part	-7.58732
▁graf	-7.59292
▁brian	-7.59856
▁international	-7.60422
▁revised	-7.60422
▁option	-7.60992
▁performance	-7.60992
▁meyers	-7.61565
▁entered	-7.62721
▁update	-7.62721
▁world	-7.62721
▁able	-7.63304
▁hplc	-7.63304
▁support	-7.63304
▁center	-7.63891
▁demand	-7.63891
▁lloyd	-7.63891
▁position	-7.64481
▁put	-7.64481
▁result	-7.64481
▁via	-7.64481
▁done	-7.65074
▁provide	-7.65074
▁start	-7.65074
▁party	-7.65671
▁allocation	-7.66272
▁created	-7.66272
▁hank	-7.66272
▁lannou	-7.66876
▁section	-7.66876
▁continue	-7.67484
▁hplno	-7.67484
▁project	-7.67484
▁reply	-7.67484
▁computron	-7.68095
▁detail	-7.68095
▁must	-7.68095
▁operation	-7.68095
▁thing	-7.68095
▁every	-7.68711
▁form	-7.6933
▁rita	-7.6933
▁marketing	-7.69953
▁professional	-7.69953
▁spreadsheet	-7.71211
▁tuesday	-7.71211
▁txu	-7.71211
▁create	-7.71846
▁however	-7.71846
▁user	-7.71846
▁visit	-7.71846
▁dec	-7.72485
▁long	-7.72485
▁needed	-7.72485
▁period	-7.72485
▁current	-7.73128
▁regarding	-7.73128
▁believe	-7.74427
▁howard	-7.74427
▁power	-7.74427
▁technology	-7.74427
▁thursday	-7.74427
▁type	-7.75082
▁act	-7.76407
▁even	-7.76407
▁increase	-7.76407
▁path	-7.76407
▁sell	-7.76407
▁someone	-7.76407
▁anything	-7.77076
▁buyback	-7.77076
▁stop	-7.77076
▁used	-7.77076
▁doc	-7.77749
▁feel	-7.77749
▁firm	-7.78427
▁pipe	-7.78427
▁error	-7.7911
▁fact	-7.7911
▁financial	-7.7911
▁got	-7.7911
▁pricing	-7.7911
▁tax	-7.7911
▁web	-7.7911
▁correct	-7.79797
▁enronxgate	-7.79797
▁using	-7.79797
▁viagra	-7.80489
▁iferc	-7.81186
▁prior	-7.81186
▁katherine	-7.81888
▁notice	-7.81888
▁family	-7.82594
▁cec	-7.83306
▁gathering	-7.83306
▁gc	-7.83306
▁paid	-7.83306
▁wynne	-7.83306
▁advice	-7.84023
▁logistics	-7.84023
▁mike	-7.84023
▁read	-7.84023
▁revision	-7.84023
▁say	-7.84023
▁allen	-7.84745
▁another	-7.84745
▁field	-7.84745
▁development	-7.85472
▁pefs	-7.85472
▁scheduled	-7.85472
▁top	-7.85472
▁allocated	-7.86205
▁website	-7.86205
▁james	-7.86943
▁pop	-7.86943
▁source	-7.87686
▁aol	-7.88436
▁aep	-7.8919
▁letter	-7.8919
▁2003	-7.89951
▁adobe	-7.89951
▁imbalance	-7.89951
▁old	-7.89951
▁three	-7.89951
▁content	-7.90717
▁dollar	-7.90717
▁either	-7.90717
▁low	-7.90717
▁remove	-7.90717
▁swing	-7.90717
▁wednesday	-7.90717
▁called	-7.91489
▁corporation	-7.91489
▁include	-7.91489
▁carlos	-7.92267
▁event	-7.92267
▁weissman	-7.92267
▁width	-7.92267
▁full	-7.93052
▁getting	-7.93052
▁payment	-7.93052
▁prescription	-7.93052
▁accounting	-7.93842
▁entex	-7.93842
▁midcon	-7.93842
▁morning	-7.93842
▁suite	-7.93842
▁jones	-7.94639
▁ce	-7.95442
▁follow	-7.95442
▁zero	-7.95442
▁href	-7.96252
▁800	-7.97068
▁anita	-7.97068
▁application	-7.97068
▁better	-7.97068
▁might	-7.97068
▁move	-7.97068
▁release	-7.97068
▁thru	-7.97068
▁working	-7.97068
▁camp	-7.97891
▁including	-7.97891
▁person	-7.97891
▁solution	-7.97891
▁charge	-7.98721
▁partner	-7.98721
▁provided	-7.98721
▁add	-7.99558
▁agree	-7.99558
▁changed	-7.99558
▁newsletter	-7.99558
▁operating	-7.99558
▁page	-7.99558
▁cornhusker	-8.00402
▁darren	-8.00402
▁hplo	-8.00402
▁survey	-8.00402
▁te	-8.00402
▁book	-8.01253
▁equistar	-8.01253
▁interest	-8.01253
▁regard	-8.01253
▁scott	-8.01253
▁limited	-8.02111
▁already	-8.02977
▁area	-8.02977
▁beaumont	-8.02977
▁clem	-8.02977
▁quality	-8.02977
▁scheduling	-8.02977
▁sherlyn	-8.02977
▁view	-8.02977
▁cialis	-8.03851
▁past	-8.03851
▁stephanie	-8.03851
▁valley	-8.03851
▁advise	-8.04732
▁loss	-8.04732
▁word	-8.04732
▁exchange	-8.05621
▁storage	-8.05621
▁200	-8.06517
▁box	-8.06517
▁item	-8.06517
▁life	-8.06517
▁never	-8.06517
▁server	-8.06517
▁something	-8.06517
▁weekend	-8.06517
▁calpine	-8.07422
▁east	-8.07422
▁image	-8.07422
▁reason	-8.07422
▁1999	-8.08336
▁action	-8.08336
▁around	-8.08336
▁big	-8.08336
▁brenda	-8.08336
▁complete	-8.08336
▁confirm	-8.08336
▁cotton	-8.08336
▁hope	-8.08336
▁little	-8.08336
▁producer	-8.08336
▁record	-8.08336
▁richard	-8.08336
▁second	-8.08336
▁cut	-8.09257
▁ee	-8.09257
▁everyone	-8.09257
▁schedule	-8.09257
▁shut	-8.09257
▁try	-8.09257
▁version	-8.09257
▁wanted	-8.09257
▁yet	-8.09257
▁amount	-8.10188
▁availability	-8.10188
▁cash	-8.10188
▁facility	-8.10188
▁thu	-8.10188
▁always	-8.11127
▁donna	-8.11127
▁flowed	-8.11127
▁left	-8.11127
▁tomorrow	-8.11127
▁vlt	-8.11127
▁china	-8.12074
▁material	-8.12074
▁redeliveries	-8.12074
▁return	-8.12074
▁thought	-8.12074
▁anyone	-8.13031
▁close	-8.13031
▁donald	-8.13031
▁face	-8.13031
▁katy	-8.13031
▁love	-8.13031
▁victor	-8.13031
▁beginning	-8.13998
▁city	-8.13998
▁easy	-8.13998
▁effort	-8.13998
▁necessary	-8.13998
▁shipping	-8.13998
▁stack	-8.13998
▁acton	-8.14973
▁direct	-8.14973
▁jeff	-8.14973
▁soft	-8.14973
▁bill	-8.15958
▁case	-8.15958
▁cover	-8.15958
▁level	-8.15958
▁ray	-8.15958
▁union	-8.15958
▁addition	-8.16953
▁computer	-8.16953
▁confirmed	-8.16953
▁cynthia	-8.16953
▁director	-8.16953
▁lauri	-8.16953
▁location	-8.16953
▁methanol	-8.16953
▁property	-8.16953
▁requested	-8.16953
▁rodriguez	-8.16953
▁watch	-8.16953
▁wish	-8.16953
▁expense	-8.17958
▁lst	-8.17958
▁response	-8.17958
▁unsubscribe	-8.17958
▁cheryl	-8.18974
▁dave	-8.18974
▁discussion	-8.18974
▁investor	-8.18974
▁ken	-8.18974
▁real	-8.18974
▁settlement	-8.18974
▁style	-8.18974
▁central	-8.19999
▁different	-8.19999
▁else	-8.19999
▁feedback	-8.19999
▁index	-8.19999
▁med	-8.19999
▁requirement	-8.19999
▁begin	-8.21036
▁charlie	-8.21036
▁follows	-8.21036
▁handle	-8.21036
▁meet	-8.21036
▁small	-8.21036
▁star	-8.21036
▁status	-8.21036
▁thomas	-8.21036
▁title	-8.21036
▁unit	-8.21036
▁281	-8.22083
▁added	-8.22083
▁expected	-8.22083
▁game	-8.22083
▁investing	-8.22083
▁stacey	-8.22083
▁training	-8.22083
▁120	-8.23141
▁country	-8.23141
▁document	-8.23141
▁final	-8.23141
▁html	-8.23141
▁paliourg	-8.23141
▁stone	-8.23141
▁6353	-8.24211
▁align	-8.24211
▁claim	-8.24211
▁clear	-8.24211
▁credit	-8.24211
▁drug	-8.24211
▁fred	-8.24211
▁industry	-8.24211
▁ranch	-8.24211
▁required	-8.24211
▁canada	-8.25292
▁carthage	-8.25292
▁edward	-8.25292
▁feature	-8.25292
▁gco	-8.25292
▁legal	-8.25292
▁personal	-8.25292
▁reinhardt	-8.25292
▁run	-8.25292
▁sept	-8.25292
▁side	-8.25292
▁third	-8.25292
▁united	-8.25292
▁member	-8.26385
▁open	-8.26385
▁parker	-8.26385
▁trader	-8.26385
▁answer	-8.27489
▁basis	-8.27489
▁enrononline	-8.27489
▁enter	-8.27489
▁found	-8.27489
▁friend	-8.27489
▁growth	-8.27489
▁network	-8.27489
▁retail	-8.27489
▁value	-8.27489
▁300	-8.28607
▁coastal	-8.28607
▁concern	-8.28607
▁extend	-8.28607
▁important	-8.28607
▁intended	-8.28607
▁mobile	-8.28607
▁monthly	-8.28607
▁outage	-8.28607
▁pro	-8.28607
▁several	-8.28607
▁zone	-8.28607
▁drive	-8.29737
▁health	-8.29737
▁karen	-8.29737
▁mobil	-8.29737
▁night	-8.29737
▁papayoti	-8.29737
▁portfolio	-8.29737
▁remember	-8.29737
▁valid	-8.29737
▁approximately	-8.3088
▁ever	-8.3088
▁extended	-8.3088
▁schumack	-8.3088
▁updated	-8.3088
▁afternoon	-8.32036
▁bryan	-8.32036
▁download	-8.32036
▁listed	-8.32036
▁potential	-8.32036
▁receipt	-8.32036
▁bank	-8.33205
▁base	-8.33205
▁baumbach	-8.33205
▁exception	-8.33205
▁expect	-8.33205
▁luong	-8.33205
▁public	-8.33205
▁2005	-8.34389
▁cannot	-8.34389
▁card	-8.34389
▁herod	-8.34389
▁jennifer	-8.34389
▁registered	-8.34389
▁staff	-8.34389
▁approval	-8.35586
▁ask	-8.35586
▁cleburne	-8.35586
▁devon	-8.35586
▁etc	-8.35586
▁guy	-8.35586
▁koch	-8.35586
▁ltd	-8.35586
▁saving	-8.35586
▁therefore	-8.35586
▁aepin	-8.36799
▁janet	-8.36799
▁lsk	-8.36799
▁talk	-8.36799
▁together	-8.36799
▁completed	-8.38026
▁interested	-8.38026
▁late	-8.38026
▁mid	-8.38026
▁sorry	-8.38026
▁tab	-8.38026
▁arrangement	-8.39268
▁confirmation	-8.39268
▁exploration	-8.39268
▁fill	-8.39268
▁hplnl	-8.39268
▁included	-8.39268
▁plus	-8.39268
▁removed	-8.39268
▁transfer	-8.39268
▁830	-8.40526
▁asset	-8.40526
▁cdnow	-8.40526
▁dow	-8.40526
▁fund	-8.40526
▁industrial	-8.40526
▁jim	-8.40526
▁nov	-8.40526
▁opportunity	-8.40526
▁president	-8.40526
▁reserve	-8.40526
▁short	-8.40526
▁thousand	-8.40526
▁voip	-8.40526
▁capital	-8.418
▁department	-8.418
▁doctor	-8.418
▁impact	-8.418
▁lot	-8.418
▁mailto	-8.418
▁nominated	-8.418
▁password	-8.418
▁php	-8.418
▁priced	-8.418
▁private	-8.418
▁probably	-8.418
▁sold	-8.418
▁told	-8.418
▁allow	-8.4309
▁belief	-8.4309
▁child	-8.4309
▁commercial	-8.4309
▁dfarmer	-8.4309
▁enw	-8.4309
▁hesse	-8.4309
▁hey	-8.4309
▁large	-8.4309
▁later	-8.4309
▁latest	-8.4309
▁prize	-8.4309
▁promotion	-8.4309
▁text	-8.4309
▁track	-8.4309
▁write	-8.4309
▁apache	-8.44397
▁browser	-8.44397
▁channel	-8.44397
▁color	-8.44397
▁coming	-8.44397
▁delivered	-8.44397
▁directly	-8.44397
▁given	-8.44397
▁hard	-8.44397
▁liz	-8.44397
▁lone	-8.44397
▁pain	-8.44397
▁poorman	-8.44397
▁really	-8.44397
▁reference	-8.44397
▁tell	-8.44397
▁voice	-8.44397
▁class	-8.45722
▁longer	-8.45722
▁medium	-8.45722
▁src	-8.45722
▁aware	-8.47064
▁communication	-8.47064
▁duty	-8.47064
▁everything	-8.47064
▁expectation	-8.47064
▁hall	-8.47064
▁lamphier	-8.47064
▁men	-8.47064
▁owner	-8.47064
▁woman	-8.47064
▁assignment	-8.48425
▁brand	-8.48425
▁cernosek	-8.48425
▁distribution	-8.48425
▁factor	-8.48425
▁hotlist	-8.48425
▁kind	-8.48425
▁london	-8.48425
▁moopid	-8.48425
▁revenue	-8.48425
▁step	-8.48425
▁target	-8.48425
▁trying	-8.48425
▁2002	-8.49804
▁assistance	-8.49804
▁general	-8.49804
▁key	-8.49804
▁limit	-8.49804
▁mean	-8.49804
▁medication	-8.49804
▁oct	-8.49804
▁publisher	-8.49804
▁ready	-8.49804
▁south	-8.49804
▁usa	-8.49804
▁valero	-8.49804
▁700	-8.51202
▁853	-8.51202
▁asked	-8.51202
▁dealer	-8.51202
▁holding	-8.51202
▁immediately	-8.51202
▁lsp	-8.51202
▁minute	-8.51202
▁saturday	-8.51202
▁ability	-8.52621
▁analyst	-8.52621
▁beverly	-8.52621
▁border	-8.52621
▁enserch	-8.52621
▁experience	-8.52621
▁head	-8.52621
▁idea	-8.52621
▁man	-8.52621
▁purpose	-8.52621
▁stranger	-8.52621
▁valign	-8.52621
▁agent	-8.5406
▁balance	-8.5406
▁bridge	-8.5406
▁code	-8.5406
▁quick	-8.5406
▁taking	-8.5406
▁weight	-8.5406
▁chance	-8.5552
▁choose	-8.5552
▁discus	-8.5552
▁ensure	-8.5552
▁exxon	-8.5552
▁hesco	-8.5552
▁individual	-8.5552
▁lose	-8.5552
▁neal	-8.5552
▁oasis	-8.5552
▁profile	-8.5552
▁scheduler	-8.5552
▁starting	-8.5552
▁verify	-8.5552
▁average	-8.57001
▁bellamy	-8.57001
▁california	-8.57001
▁certain	-8.57001
▁database	-8.57001
▁dear	-8.57001
▁lamadrid	-8.57001
▁moved	-8.57001
▁paste	-8.57001
▁pharmacy	-8.57001
▁referenced	-8.57001
▁reflect	-8.57001
▁representative	-8.57001
▁secure	-8.57001
▁select	-8.57001
▁sign	-8.57001
▁compliance	-8.58505
▁considered	-8.58505
▁early	-8.58505
▁gpgfin	-8.58505
▁major	-8.58505
▁mccoy	-8.58505
▁neon	-8.58505
▁nothing	-8.58505
▁spam	-8.58505
▁spoke	-8.58505
▁waha	-8.58505
▁william	-8.58505
▁affiliate	-8.60032
▁ali	-8.60032
▁approved	-8.60032
▁biz	-8.60032
▁body	-8.60032
▁comment	-8.60032
▁earl	-8.60032
▁king	-8.60032
▁photoshop	-8.60032
▁purchased	-8.60032
▁room	-8.60032
▁showing	-8.60032
▁taken	-8.60032
▁transportation	-8.60032
▁upon	-8.60032
▁williams	-8.60032
▁away	-8.61582
▁bring	-8.61582
▁cell	-8.61582
▁knle	-8.61582
▁mar	-8.61582
▁matter	-8.61582
▁mcf	-8.61582
▁mentioned	-8.61582
▁officer	-8.61582
▁print	-8.61582
▁specific	-8.61582
▁superty	-8.61582
▁though	-8.61582
▁9497	-8.63157
▁hear	-8.63157
▁mailing	-8.63157
▁morris	-8.63157
▁offering	-8.63157
▁pathed	-8.63157
▁related	-8.63157
▁sat	-8.63157
▁travel	-8.63157
▁whole	-8.63157
▁additionally	-8.64757
▁benefit	-8.64757
▁button	-8.64757
▁couple	-8.64757
▁draft	-8.64757
▁dynegy	-8.64757
▁enerfin	-8.64757
▁god	-8.64757
▁middle	-8.64757
▁nguyen	-8.64757
▁physical	-8.64757
▁publication	-8.64757
▁sandi	-8.64757
▁stella	-8.64757
▁terry	-8.64757
▁tetco	-8.64757
▁discount	-8.66383
▁easttexas	-8.66383
▁eol	-8.66383
▁federal	-8.66383
▁herrera	-8.66383
▁hill	-8.66383
▁informed	-8.66383
▁instruction	-8.66383
▁kevin	-8.66383
▁kimberly	-8.66383
▁mind	-8.66383
▁national	-8.66383
▁others	-8.66383
▁relief	-8.66383
▁riley	-8.66383
▁subscriber	-8.66383
▁tejas	-8.66383
▁video	-8.66383
▁971	-8.68036
▁avila	-8.68036
▁become	-8.68036
▁bruce	-8.68036
▁enough	-8.68036
▁hakemack	-8.68036
▁reader	-8.68036
▁responsibility	-8.68036
▁river	-8.68036
▁shall	-8.68036
▁simply	-8.68036
▁story	-8.68036
▁super	-8.68036
▁understanding	-8.68036
▁worldwide	-8.68036
▁albrecht	-8.69717
▁attention	-8.69717
▁corporate	-8.69717
▁existing	-8.69717
▁green	-8.69717
▁happy	-8.69717
▁hello	-8.69717
▁johnson	-8.69717
▁opinion	-8.69717
▁remaining	-8.69717
▁tina	-8.69717
▁vacation	-8.69717
▁withers	-8.69717
▁yesterday	-8.69717
▁age	-8.71426
▁elizabeth	-8.71426
▁fast	-8.71426
▁flowing	-8.71426
▁four	-8.71426
▁gomes	-8.71426
▁gulf	-8.71426
▁includes	-8.71426
▁light	-8.71426
▁making	-8.71426
▁meaning	-8.71426
▁medical	-8.71426
▁missing	-8.71426
▁plain	-8.71426
▁projection	-8.71426
▁rolex	-8.71426
▁seek	-8.71426
▁ship	-8.71426
▁spring	-8.71426
▁turn	-8.71426
▁uncertainty	-8.71426
▁white	-8.71426
▁according	-8.73165
▁advised	-8.73165
▁agency	-8.73165
▁appreciate	-8.73165
▁cheap	-8.73165
▁condition	-8.73165
▁dell	-8.73165
▁entire	-8.73165
▁ext	-8.73165
▁gif	-8.73165
▁leader	-8.73165
▁mill	-8.73165
▁model	-8.73165
▁mop	-8.73165
▁non	-8.73165
▁occur	-8.73165
▁press	-8.73165
▁quantity	-8.73165
▁stay	-8.73165
▁sunday	-8.73165
▁tisdale	-8.73165
▁098	-8.74935
▁american	-8.74935
▁care	-8.74935
▁category	-8.74935
▁certificate	-8.74935
▁eileen	-8.74935
▁express	-8.74935
▁fixed	-8.74935
▁hotmail	-8.74935
▁hub	-8.74935
▁lead	-8.74935
▁mckay	-8.74935
▁monitor	-8.74935
▁morgan	-8.74935
▁music	-8.74935
▁none	-8.74935
▁planning	-8.74935
▁reach	-8.74935
▁recent	-8.74935
▁store	-8.74935
▁tammy	-8.74935
▁tel	-8.74935
▁took	-8.74935
▁waiting	-8.74935
▁215	-8.76737
▁250	-8.76737
▁cause	-8.76737
▁estimated	-8.76737
▁evergreen	-8.76737
▁example	-8.76737
▁format	-8.76737
▁kc	-8.76737
▁macromedia	-8.76737
▁picture	-8.76737
▁play	-8.76737
▁player	-8.76737
▁quote	-8.76737
▁reliantenergy	-8.76737
▁safe	-8.76737
▁senior	-8.76737
▁southern	-8.76737
▁success	-8.76737
▁tool	-8.76737
▁transition	-8.76737
▁went	-8.76737
▁463	-8.78572
▁differ	-8.78572
▁draw	-8.78572
▁edition	-8.78572
▁effect	-8.78572
▁gift	-8.78572
▁goal	-8.78572
▁half	-8.78572
▁history	-8.78572
▁involve	-8.78572
▁package	-8.78572
▁passed	-8.78572
▁respect	-8.78572
▁shown	-8.78572
▁table	-8.78572
▁understand	-8.78572
▁walker	-8.78572
▁analysis	-8.80441
▁brazos	-8.80441
▁dvd	-8.80441
▁entry	-8.80441
▁eric	-8.80441
▁force	-8.80441
▁hold	-8.80441
▁htm	-8.80441
▁identified	-8.80441
▁louisiana	-8.80441
▁near	-8.80441
▁parent	-8.80441
▁ponton	-8.80441
▁provides	-8.80441
▁reveffo	-8.80441
▁school	-8.80441
▁selected	-8.80441
▁situation	-8.80441
▁xanax	-8.80441
▁105	-8.82346
▁345	-8.82346
▁active	-8.82346
▁chad	-8.82346
▁dan	-8.82346
▁epgt	-8.82346
▁exactly	-8.82346
▁expedia	-8.82346
▁heidi	-8.82346
▁held	-8.82346
▁higher	-8.82346
▁jill	-8.82346
▁join	-8.82346
▁origination	-8.82346
▁pas	-8.82346
▁paso	-8.82346
▁previously	-8.82346
▁receiving	-8.82346
▁resume	-8.82346
▁roll	-8.82346
▁rule	-8.82346
▁sun	-8.82346
▁valium	-8.82346
▁walter	-8.82346
▁77002	-8.84288
▁agreed	-8.84288
▁basin	-8.84288
▁blue	-8.84288
▁confidential	-8.84288
▁contains	-8.84288
▁corel	-8.84288
▁enterprise	-8.84288
▁fwd	-8.84288
▁generic	-8.84288
▁girl	-8.84288
▁learn	-8.84288
▁matt	-8.84288
▁processing	-8.84288
▁sincerely	-8.84288
▁yahoo	-8.84288
▁acquisition	-8.86268
▁advantage	-8.86268
▁air	-8.86268
▁appropriate	-8.86268
▁associated	-8.86268
▁aug	-8.86268
▁bit	-8.86268
▁est	-8.86268
▁fun	-8.86268
▁gtc	-8.86268
▁guarantee	-8.86268
▁holmes	-8.86268
▁load	-8.86268
▁notify	-8.86268
▁outstanding	-8.86268
▁perfect	-8.86268
▁pinion	-8.86268
▁register	-8.86268
▁rest	-8.86268
▁svcs	-8.86268
▁tracked	-8.86268
▁wide	-8.86268
▁1266	-8.88288
▁ago	-8.88288
▁bid	-8.88288
▁btu	-8.88288
▁calendar	-8.88288
▁car	-8.88288
▁committed	-8.88288
▁cpr	-8.88288
▁determine	-8.88288
▁entity	-8.88288
▁featured	-8.88288
▁government	-8.88288
▁hundred	-8.88288
▁least	-8.88288
▁linda	-8.88288
▁llc	-8.88288
▁notification	-8.88288
▁pick	-8.88288
▁recorded	-8.88288
▁running	-8.88288
▁rus	-8.88288
▁shipped	-8.88288
▁valadez	-8.88288
▁yes	-8.88288
▁0435	-8.9035
▁213	-8.9035
▁billed	-8.9035
▁county	-8.9035
▁flash	-8.9035
▁grant	-8.9035
▁heard	-8.9035
▁instead	-8.9035
▁land	-8.9035
▁multiple	-8.9035
▁neuweiler	-8.9035
▁objective	-8.9035
▁paper	-8.9035
▁placed	-8.9035
▁provider	-8.9035
▁research	-8.9035
▁rick	-8.9035
▁sex	-8.9035
▁shareholder	-8.9035
▁similar	-8.9035
▁started	-8.9035
▁usage	-8.9035
▁whether	-8.9035
▁400	-8.92456
▁adjustment	-8.92456
▁assist	-8.92456
▁charlotte	-8.92456
▁difference	-8.92456
▁ew	-8.92456
▁expects	-8.92456
▁gain	-8.92456
▁go	-8.92456
▁hot	-8.92456
▁house	-8.92456
▁img	-8.92456
▁intel	-8.92456
▁mitchell	-8.92456
▁olsen	-8.92456
▁paragraph	-8.92456
▁percent	-8.92456
▁prod	-8.92456
▁respective	-8.92456
▁respond	-8.92456
▁responsible	-8.92456
▁strong	-8.92456
▁unaccounted	-8.92456
▁baxter	-8.94606
▁ca	-8.94606
▁cd	-8.94606
▁ceo	-8.94606
▁connection	-8.94606
▁consumer	-8.94606
▁daniel	-8.94606
▁expired	-8.94606
▁focus	-8.94606
▁foot	-8.94606
▁huge	-8.94606
▁interconnect	-8.94606
▁involved	-8.94606
▁leave	-8.94606
▁listing	-8.94606
▁pool	-8.94606
▁ricky	-8.94606
▁stephen	-8.94606
▁submit	-8.94606
▁tried	-8.94606
▁various	-8.94606
▁welcome	-8.94606
▁west	-8.94606
▁allocate	-8.96804
▁avoid	-8.96804
▁bad	-8.96804
▁beaty	-8.96804
▁bgcolor	-8.96804
▁boa	-8.96804
▁calling	-8.96804
▁capacity	-8.96804
▁charlene	-8.96804
▁chemical	-8.96804
▁common	-8.96804
▁correctly	-8.96804
▁equipment	-8.96804
▁guess	-8.96804
▁manage	-8.96804
▁policy	-8.96804
▁profit	-8.96804
▁reduce	-8.96804
▁registration	-8.96804
▁remain	-8.96804
▁sending	-8.96804
▁shop	-8.96804
▁speculative	-8.96804
▁usb	-8.96804
▁984132	-8.99051
▁apply	-8.99051
▁assumption	-8.99051
▁board	-8.99051
▁bryce	-8.99051
▁budget	-8.99051
▁decision	-8.99051
▁enjoy	-8.99051
▁excess	-8.99051
▁export	-8.99051
▁five	-8.99051
▁ibm	-8.99051
▁immediate	-8.99051
▁internal	-8.99051
▁job	-8.99051
▁lonestar	-8.99051
▁lower	-8.99051
▁martin	-8.99051
▁mazowita	-8.99051
▁normal	-8.99051
▁phillips	-8.99051
▁preliminary	-8.99051
▁reflects	-8.99051
▁require	-8.99051
▁resolved	-8.99051
▁role	-8.99051
▁schneider	-8.99051
▁standard	-8.99051
▁station	-8.99051
▁suggestion	-8.99051
▁summary	-8.99051
▁600	-9.0135
▁advisor	-9.0135
▁anticipated	-9.0135
▁buddy	-9.0135
▁came	-9.0135
▁clickathome	-9.0135
▁door	-9.0135
▁dth	-9.0135
▁filing	-9.0135
▁greater	-9.0135
▁kelly	-9.0135
▁marta	-9.0135
▁memo	-9.0135
▁panenergy	-9.0135
▁park	-9.0135
▁paying	-9.0135
▁rebecca	-9.0135
▁red	-9.0135
▁sally	-9.0135
▁sheet	-9.0135
▁spinnaker	-9.0135
▁test	-9.0135
▁tufco	-9.0135
▁wife	-9.0135
▁012	-9.03703
▁1933	-9.03703
▁201	-9.03703
▁249	-9.03703
▁alert	-9.03703
▁appear	-9.03703
▁appears	-9.03703
▁asking	-9.03703
▁assigned	-9.03703
▁attachment	-9.03703
▁baseload	-9.03703
▁bought	-9.03703
▁chris	-9.03703
▁christy	-9.03703
▁digital	-9.03703
▁encina	-9.03703
▁holiday	-9.03703
▁instant	-9.03703
▁kim	-9.03703
▁maintenance	-9.03703
▁match	-9.03703
▁mtr	-9.03703
▁petroleum	-9.03703
▁popular	-9.03703
▁quit	-9.03703
▁rnd	-9.03703
▁royal	-9.03703
▁selling	-9.03703
▁stand	-9.03703
▁termination	-9.03703
▁worked	-9.03703
▁149	-9.06113
▁750	-9.06113
▁archer	-9.06113
▁associate	-9.06113
▁austin	-9.06113
▁brandywine	-9.06113
▁building	-9.06113
▁column	-9.06113
▁conversation	-9.06113
▁course	-9.06113
▁creative	-9.06113
▁csikos	-9.06113
▁environment	-9.06113
▁europe	-9.06113
▁eye	-9.06113
▁finance	-9.06113
▁gra	-9.06113
▁hanson	-9.06113
▁henderson	-9.06113
▁kathryn	-9.06113
▁kathy	-9.06113
▁known	-9.06113
▁law	-9.06113
▁maybe	-9.06113
▁nominates	-9.06113
▁speed	-9.06113
▁booked	-9.08582
▁buyer	-9.08582
▁cross	-9.08582
▁diamond	-9.08582
▁discussed	-9.08582
▁external	-9.08582
▁gdp	-9.08582
▁generation	-9.08582
▁gmt	-9.08582
▁gold	-9.08582
▁hotel	-9.08582
▁iii	-9.08582
▁increased	-9.08582
▁participate	-9.08582
▁paul	-9.08582
▁providing	-9.08582
▁reporting	-9.08582
▁shopping	-9.08582
▁specialist	-9.08582
▁telephone	-9.08582
▁texoma	-9.08582
▁troy	-9.08582
▁true	-9.08582
▁winner	-9.08582
▁worth	-9.08582
▁yvette	-9.08582
▁101	-9.11114
▁actually	-9.11114
▁alt	-9.11114
▁bed	-9.11114
▁black	-9.11114
▁build	-9.11114
▁commodity	-9.11114
▁conflict	-9.11114
▁crosstex	-9.11114
▁crude	-9.11114
▁description	-9.11114
▁erection	-9.11114
▁evening	-9.11114
▁fat	-9.11114
▁finally	-9.11114
▁financing	-9.11114
▁handling	-9.11114
▁input	-9.11114
▁jeffrey	-9.11114
▁live	-9.11114
▁located	-9.11114
▁logo	-9.11114
▁mmbtus	-9.11114
▁organization	-9.11114
▁outlook	-9.11114
▁patti	-9.11114
▁penis	-9.11114
▁prayer	-9.11114
▁pre	-9.11114
▁recently	-9.11114
▁sport	-9.11114
▁sweeney	-9.11114
▁transmission	-9.11114
▁trevino	-9.11114
▁trip	-9.11114
▁unique	-9.11114
▁wallis	-9.11114
▁wed	-9.11114
▁4179	-9.13712
▁accuracy	-9.13712
▁brown	-9.13712
▁clean	-9.13712
▁critical	-9.13712
▁demokritos	-9.13712
▁discrepancy	-9.13712
▁eel	-9.13712
▁happen	-9.13712
▁iit	-9.13712
▁inform	-9.13712
▁itoy	-9.13712
▁kenneth	-9.13712
▁kristen	-9.13712
▁local	-9.13712
▁nominate	-9.13712
▁pleased	-9.13712
▁presently	-9.13712
▁ref	-9.13712
▁screen	-9.13712
▁seaman	-9.13712
▁seen	-9.13712
▁sexual	-9.13712
▁single	-9.13712
▁sound	-9.13712
▁sullivan	-9.13712
▁talked	-9.13712
▁vicodin	-9.13712
▁wait	-9.13712
▁2700	-9.16379
▁among	-9.16379
▁billion	-9.16379
▁compaq	-9.16379
▁deliver	-9.16379
▁exclusive	-9.16379
▁far	-9.16379
▁fine	-9.16379
▁fri	-9.16379
▁harris	-9.16379
▁highly	-9.16379
▁hit	-9.16379
▁issued	-9.16379
▁jebel	-9.16379
▁laptop	-9.16379
▁lottery	-9.16379
▁managing	-9.16379
▁manual	-9.16379
▁mcmills	-9.16379
▁overnight	-9.16379
▁privacy	-9.16379
▁quarter	-9.16379
▁region	-9.16379
▁robin	-9.16379
▁sabrae	-9.16379
▁session	-9.16379
▁tri	-9.16379
▁vaughn	-9.16379
▁vols	-9.16379
▁winfree	-9.16379
▁1934	-9.19119
▁5192	-9.19119
▁8659	-9.19119
▁8722	-9.19119
▁acceptance	-9.19119
▁along	-9.19119
▁amazon	-9.19119
▁avail	-9.19119
▁award	-9.19119
▁buying	-9.19119
▁client	-9.19119
▁decided	-9.19119
▁egmnom	-9.19119
▁floor	-9.19119
▁front	-9.19119
▁greg	-9.19119
▁hol	-9.19119
▁hull	-9.19119
▁indicate	-9.19119
▁laura	-9.19119
▁leading	-9.19119
▁leslie	-9.19119
▁lesson	-9.19119
▁louis	-9.19119
▁met	-9.19119
▁movie	-9.19119
▁notebook	-9.19119
▁palestinian	-9.19119
▁pena	-9.19119
▁photo	-9.19119
▁prc	-9.19119
▁purchasing	-9.19119
▁quickly	-9.19119
▁replica	-9.19119
▁resolve	-9.19119
▁sea	-9.19119
▁sony	-9.19119
▁split	-9.19119
▁street	-9.19119
▁throughout	-9.19119
▁trademark	-9.19119
▁027	-9.21936
▁1000	-9.21936
▁214	-9.21936
▁announce	-9.21936
▁approx	-9.21936
▁apr	-9.21936
▁benedict	-9.21936
▁braband	-9.21936
▁cartwheel	-9.21936
▁chairman	-9.21936
▁changing	-9.21936
▁checked	-9.21936
▁citibank	-9.21936
▁contained	-9.21936
▁counterparties	-9.21936
▁delta	-9.21936
▁designed	-9.21936
▁earlier	-9.21936
▁expires	-9.21936
▁greif	-9.21936
▁hernandez	-9.21936
▁historical	-9.21936
▁inherent	-9.21936
▁lake	-9.21936
▁lateral	-9.21936
▁lyondell	-9.21936
▁minimum	-9.21936
▁otherwise	-9.21936
▁participant	-9.21936
▁payroll	-9.21936
▁present	-9.21936
▁range	-9.21936
▁repair	-9.21936
▁setting	-9.21936
▁severson	-9.21936
▁six	-9.21936
▁somehow	-9.21936
▁strategy	-9.21936
▁suggest	-9.21936
▁sum	-9.21936
▁swift	-9.21936
▁urgent	-9.21936
▁venturatos	-9.21936
▁wrong	-9.21936
▁accept	-9.24834
▁across	-9.24834
▁broadband	-9.24834
▁cable	-9.24834
▁cindy	-9.24834
▁clearance	-9.24834
▁contribution	-9.24834
▁correction	-9.24834
▁cowboy	-9.24834
▁eff	-9.24834
▁engage	-9.24834
▁executive	-9.24834
▁exercise	-9.24834
▁father	-9.24834
▁gisb	-9.24834
▁guaranteed	-9.24834
▁herein	-9.24834
▁hplnol	-9.24834
▁indicated	-9.24834
▁initial	-9.24834
▁licensed	-9.24834
▁lindley	-9.24834
▁liquid	-9.24834
▁looked	-9.24834
▁mile	-9.24834
▁mtbe	-9.24834
▁pager	-9.24834
▁primary	-9.24834
▁proposed	-9.24834
▁provision	-9.24834
▁sean	-9.24834
▁serve	-9.24834
▁solicitation	-9.24834
▁stated	-9.24834
▁suzanne	-9.24834
▁upgrade	-9.24834
▁waste	-9.24834
▁wholesale	-9.24834
▁1373	-9.2782
▁aerofoam	-9.2782
▁behalf	-9.2782
▁billing	-9.2782
▁bottom	-9.2782
▁canon	-9.2782
▁cent	-9.2782
▁commission	-9.2782
▁conference	-9.2782
▁design	-9.2782
▁dudley	-9.2782
▁education	-9.2782
▁eiben	-9.2782
▁electronic	-9.2782
▁extra	-9.2782
▁frank	-9.2782
▁glover	-9.2782
▁graphic	-9.2782
▁importance	-9.2782
▁invitation	-9.2782
▁jackson	-9.2782
▁jpg	-9.2782
▁kept	-9.2782
▁kinsey	-9.2782
▁meredith	-9.2782
▁nick	-9.2782
▁pathing	-9.2782
▁pep	-9.2782
▁rather	-9.2782
▁recipient	-9.2782
▁sap	-9.2782
▁sec	-9.2782
▁spain	-9.2782
▁talking	-9.2782
▁texaco	-9.2782
▁warning	-9.2782
▁512	-9.30897
▁646	-9.30897
▁annual	-9.30897
▁built	-9.30897
▁charles	-9.30897
▁complaint	-9.30897
▁concerning	-9.30897
▁connie	-9.30897
▁continued	-9.30897
▁corrected	-9.30897
▁double	-9.30897
▁eb	-9.30897
▁equity	-9.30897
▁ftworth	-9.30897
▁gotten	-9.30897
▁gottlob	-9.30897
▁hand	-9.30897
▁heather	-9.30897
▁indicating	-9.30897
▁lost	-9.30897
▁master	-9.30897
▁measurement	-9.30897
▁mine	-9.30897
▁norton	-9.30897
▁premium	-9.30897
▁reduction	-9.30897
▁represent	-9.30897
▁road	-9.30897
▁romeo	-9.30897
▁sample	-9.30897
▁san	-9.30897
▁search	-9.30897
▁seller	-9.30897
▁simple	-9.30897
▁sofftwaares	-9.30897
▁submitted	-9.30897
▁symbol	-9.30897
▁toshiba	-9.30897
▁und	-9.30897
▁unless	-9.30897
▁victoria	-9.30897
▁villarreal	-9.30897
▁wilson	-9.30897
▁winning	-9.30897
▁zivley	-9.30897
▁0986725	-9.34072
▁1012	-9.34072
▁6934	-9.34072
▁aim	-9.34072
▁allows	-9.34072
▁alternative	-9.34072
▁apple	-9.34072
▁assistant	-9.34072
▁attack	-9.34072
▁bankruptcy	-9.34072
▁behind	-9.34072
▁capture	-9.34072
▁coast	-9.34072
▁congress	-9.34072
▁connor	-9.34072
▁consemiu	-9.34072
▁copano	-9.34072
▁elsa	-9.34072
▁epson	-9.34072
▁except	-9.34072
▁ferc	-9.34072
▁golf	-9.34072
▁guadalupe	-9.34072
▁inch	-9.34072
▁invest	-9.34072
▁marlene	-9.34072
▁materia	-9.34072
▁min	-9.34072
▁notified	-9.34072
▁ooking	-9.34072
▁ordering	-9.34072
▁particular	-9.34072
▁payback	-9.34072
▁pgev	-9.34072
▁pic	-9.34072
▁port	-9.34072
▁positive	-9.34072
▁prepare	-9.34072
▁ram	-9.34072
▁reliant	-9.34072
▁resulting	-9.34072
▁rock	-9.34072
▁soma	-9.34072
▁stuff	-9.34072
▁timing	-9.34072
▁topica	-9.34072
▁unable	-9.34072
▁understood	-9.34072
▁1007	-9.37351
▁110	-9.37351
▁9415	-9.37351
▁almost	-9.37351
▁aquila	-9.37351
▁attend	-9.37351
▁auto	-9.37351
▁broker	-9.37351
▁carry	-9.37351
▁colspan	-9.37351
▁construed	-9.37351
▁diane	-9.37351
▁drop	-9.37351
▁enhancement	-9.37351
▁fix	-9.37351
▁forever	-9.37351
▁functionality	-9.37351
▁garrick	-9.37351
▁hilliard	-9.37351
▁hottlist	-9.37351
▁hughes	-9.37351
▁industrials	-9.37351
▁intrastate	-9.37351
▁joanne	-9.37351
▁kid	-9.37351
▁likely	-9.37351
▁patch	-9.37351
▁patient	-9.37351
▁pertaining	-9.37351
▁pull	-9.37351
▁reef	-9.37351
▁rental	-9.37351
▁resellers	-9.37351
▁restricted	-9.37351
▁salary	-9.37351
▁saw	-9.37351
▁seems	-9.37351
▁studio	-9.37351
▁summer	-9.37351
▁technical	-9.37351
▁tournament	-9.37351
▁variance	-9.37351
▁yap	-9.37351
▁128	-9.40741
▁1618	-9.40741
▁advance	-9.40741
▁although	-9.40741
▁amy	-9.40741
▁bammel	-9.40741
▁batch	-9.40741
▁blank	-9.40741
▁cherry	-9.40741
▁choice	-9.40741
▁closed	-9.40741
▁cold	-9.40741
▁competitive	-9.40741
▁compressor	-9.40741
▁coupon	-9.40741
▁dallas	-9.40741
▁davis	-9.40741
▁decrease	-9.40741
▁developed	-9.40741
▁diligence	-9.40741
▁driver	-9.40741
▁edmondson	-9.40741
▁gay	-9.40741
▁hillary	-9.40741
▁husband	-9.40741
▁hydrocarbon	-9.40741
▁inside	-9.40741
▁island	-9.40741
▁joanie	-9.40741
▁language	-9.40741
▁legislation	-9.40741
▁loan	-9.40741
▁lowest	-9.40741
▁luck	-9.40741
▁materially	-9.40741
▁medicine	-9.40741
▁mineral	-9.40741
▁miss	-9.40741
▁muscle	-9.40741
▁outside	-9.40741
▁presentation	-9.40741
▁procedure	-9.40741
▁relationship	-9.40741
▁richmond	-9.40741
▁robotics	-9.40741
▁shawna	-9.40741
▁speckels	-9.40741
▁successful	-9.40741
▁tonight	-9.40741
▁vice	-9.40741
▁0439	-9.4425
▁180	-9.4425
▁229	-9.4425
▁384258	-9.4425
▁405	-9.4425
▁4176	-9.4425
▁875	-9.4425
▁8834454	-9.4425
▁8834464	-9.4425
▁adjust	-9.4425
▁ahead	-9.4425
▁announcement	-9.4425
▁art	-9.4425
▁assurance	-9.4425
▁brent	-9.4425
▁centana	-9.4425
▁charset	-9.4425
▁cisco	-9.4425
▁cokinos	-9.4425
▁cook	-9.4425
▁count	-9.4425
▁deadline	-9.4425
▁delay	-9.4425
▁delete	-9.4425
▁dolphin	-9.4425
▁egm	-9.4425
▁enquiry	-9.4425
▁expert	-9.4425
▁flag	-9.4425
▁flight	-9.4425
▁foreign	-9.4425
▁franklin	-9.4425
▁function	-9.4425
▁gave	-9.4425
▁happening	-9.4425
▁hewlett	-9.4425
▁hospital	-9.4425
▁log	-9.4425
▁main	-9.4425
▁membership	-9.4425
▁merchant	-9.4425
▁military	-9.4425
▁mining	-9.4425
▁mix	-9.4425
▁molly	-9.4425
▁nat	-9.4425
▁owe	-9.4425
▁phentermine	-9.4425
▁prediction	-9.4425
▁preparation	-9.4425
▁prepared	-9.4425
▁reviewed	-9.4425
▁sharon	-9.4425
▁significant	-9.4425
▁structure	-9.4425
▁tim	-9.4425
▁torch	-9.4425
▁town	-9.4425
▁treatment	-9.4425
▁understands	-9.4425
▁zeroed	-9.4425
▁202	-9.47887
▁248	-9.47887
▁33396	-9.47887
▁accessory	-9.47887
▁adjusted	-9.47887
▁affordable	-9.47887
▁announced	-9.47887
▁anti	-9.47887
▁aopen	-9.47887
▁apc	-9.47887
▁authority	-9.47887
▁automatically	-9.47887
▁ball	-9.47887
▁belize	-9.47887
▁cap	-9.47887
▁capability	-9.47887
▁charged	-9.47887
▁chevron	-9.47887
▁consent	-9.47887
▁customerservice	-9.47887
▁deciding	-9.47887
▁deer	-9.47887
▁degree	-9.47887
▁detailed	-9.47887
▁device	-9.47887
▁dewpoint	-9.47887
▁dial	-9.47887
▁discovered	-9.47887
▁european	-9.47887
▁filter	-9.47887
▁giving	-9.47887
▁goliad	-9.47887
▁heart	-9.47887
▁identify	-9.47887
▁intellinet	-9.47887
▁intent	-9.47887
▁intraday	-9.47887
▁iomega	-9.47887
▁knowledge	-9.47887
▁listbot	-9.47887
▁lon	-9.47887
▁mailbox	-9.47887
▁manufacturer	-9.47887
▁moving	-9.47887
▁nommensen	-9.47887
▁oem	-9.47887
▁operational	-9.47887
▁packard	-9.47887
▁personnel	-9.47887
▁powerful	-9.47887
▁pressure	-9.47887
▁previous	-9.47887
▁reached	-9.47887
▁redmond	-9.47887
▁relation	-9.47887
▁shipper	-9.47887
▁targus	-9.47887
▁terminated	-9.47887
▁tommy	-9.47887
▁usd	-9.47887
▁venture	-9.47887
▁viewsonic	-9.47887
▁whatever	-9.47887
▁wireless	-9.47887
▁129	-9.51661
▁1428	-9.51661
▁270	-9.51661
▁552	-9.51661
▁accountant	-9.51661
▁addressed	-9.51661
▁adult	-9.51661
▁ail	-9.51661
▁anticipates	-9.51661
▁brbr	-9.51661
▁briley	-9.51661
▁cellpadding	-9.51661
▁college	-9.51661
▁compensation	-9.51661
▁contain	-9.51661
▁cousino	-9.51661
▁eat	-9.51661
▁enhanced	-9.51661
▁explode	-9.51661
▁extension	-9.51661
▁finding	-9.51661
▁forget	-9.51661
▁fully	-9.51661
▁gone	-9.51661
▁improve	-9.51661
▁interview	-9.51661
▁invoiced	-9.51661
▁jaquet	-9.51661
▁julia	-9.51661
▁larry	-9.51661
▁launch	-9.51661
▁loading	-9.51661
▁metal	-9.51661
▁midstream	-9.51661
▁modem	-9.51661
▁pinnacle	-9.51661
▁post	-9.51661
▁proper	-9.51661
▁realize	-9.51661
▁reliable	-9.51661
▁safety	-9.51661
▁selection	-9.51661
▁serial	-9.51661
▁sheri	-9.51661
▁son	-9.51661
▁spend	-9.51661
▁stretch	-9.51661
▁thus	-9.51661
▁uae	-9.51661
▁wiil	-9.51661
▁0600	-9.55583
▁220	-9.55583
▁986315	-9.55583
▁administration	-9.55583
▁africa	-9.55583
▁amazing	-9.55583
▁anderson	-9.55583
▁anytime	-9.55583
▁beck	-9.55583
▁cal	-9.55583
▁camera	-9.55583
▁campaign	-9.55583
▁committee	-9.55583
▁competition	-9.55583
▁completion	-9.55583
▁comstock	-9.55583
▁congratulation	-9.55583
▁debbie	-9.55583
▁die	-9.55583
▁electric	-9.55583
▁emirate	-9.55583
▁executed	-9.55583
▁fare	-9.55583
▁foresee	-9.55583
▁gap	-9.55583
▁gathered	-9.55583
▁hawkins	-9.55583
▁illustrator	-9.55583
▁intercompany	-9.55583
▁josey	-9.55583
▁killed	-9.55583
▁kyle	-9.55583
▁memory	-9.55583
▁motor	-9.55583
▁ocean	-9.55583
▁often	-9.55583
▁premiere	-9.55583
▁prime	-9.55583
▁protocol	-9.55583
▁putting	-9.55583
▁regular	-9.55583
▁reminder	-9.55583
▁resolution	-9.55583
▁sector	-9.55583
▁self	-9.55583
▁sir	-9.55583
▁study	-9.55583
▁tag	-9.55583
▁tech	-9.55583
▁worksheet	-9.55583
▁210	-9.59665
▁34342	-9.59665
▁5000	-9.59665
▁acquire	-9.59665
▁adonis	-9.59665
▁advanced	-9.59665
▁advises	-9.59665
▁aeor	-9.59665
▁australia	-9.59665
▁banking	-9.59665
▁bar	-9.59665
▁benoit	-9.59665
▁campos	-9.59665
▁cilco	-9.59665
▁community	-9.59665
▁consider	-9.59665
▁dating	-9.59665
▁drink	-9.59665
▁earnings	-9.59665
▁editor	-9.59665
▁eight	-9.59665
▁eogi	-9.59665
▁fda	-9.59665
▁flynn	-9.59665
▁grow	-9.59665
▁hr	-9.59665
▁improvement	-9.59665
▁incorrect	-9.59665
▁jason	-9.59665
▁killing	-9.59665
▁lls	-9.59665
▁mcgee	-9.59665
▁merger	-9.59665
▁moment	-9.59665
▁ngo	-9.59665
▁nice	-9.59665
▁noon	-9.59665
▁noted	-9.59665
▁platform	-9.59665
▁practice	-9.59665
▁pretty	-9.59665
▁proposal	-9.59665
▁protection	-9.59665
▁regulation	-9.59665
▁remote	-9.59665
▁ryan	-9.59665
▁shari	-9.59665
▁shipment	-9.59665
▁shoreline	-9.59665
▁sit	-9.59665
▁spencer	-9.59665
▁tailgate	-9.59665
▁tiger	-9.59665
▁verdana	-9.59665
▁vol	-9.59665
▁weather	-9.59665
▁zajac	-9.59665
▁zonedubai	-9.59665
▁1200	-9.63921
▁285	-9.63921
▁289	-9.63921
▁311	-9.63921
▁36449	-9.63921
▁5848	-9.63921
▁960	-9.63921
▁advertisement	-9.63921
▁anywhere	-9.63921
▁appointment	-9.63921
▁brennan	-9.63921
▁bretz	-9.63921
▁carbide	-9.63921
▁choate	-9.63921
▁cia	-9.63921
▁concerned	-9.63921
▁confidentiality	-9.63921
▁continuing	-9.63921
▁crow	-9.63921
▁deposit	-9.63921
▁documentation	-9.63921
▁ehronline	-9.63921
▁emerson	-9.63921
▁expensive	-9.63921
▁fall	-9.63921
▁garden	-9.63921
▁gateway	-9.63921
▁griffin	-9.63921
▁guide	-9.63921
▁hair	-9.63921
▁handled	-9.63921
▁header	-9.63921
▁highest	-9.63921
▁hopefully	-9.63921
▁interface	-9.63921
▁isc	-9.63921
▁iso	-9.63921
▁joe	-9.63921
▁juno	-9.63921
▁la	-9.63921
▁locker	-9.63921
▁mack	-9.63921
▁max	-9.63921
▁migration	-9.63921
▁mortgage	-9.63921
▁multi	-9.63921
▁netco	-9.63921
▁netherlands	-9.63921
▁nomad	-9.63921
▁oba	-9.63921
▁official	-9.63921
▁offshore	-9.63921
▁okay	-9.63921
▁opm	-9.63921
▁otcbb	-9.63921
▁pack	-9.63921
▁pending	-9.63921
▁pleasure	-9.63921
▁pls	-9.63921
▁processed	-9.63921
▁prozac	-9.63921
▁randall	-9.63921
▁resuits	-9.63921
▁rich	-9.63921
▁rusty	-9.63921
▁seem	-9.63921
▁supplier	-9.63921
▁ten	-9.63921
▁us	-9.63921
▁verification	-9.63921
▁york	-9.63921
▁583	-9.68366
▁9696	-9.68366
▁administrative	-9.68366
▁allowed	-9.68366
▁anthony	-9.68366
▁anyway	-9.68366
▁apparently	-9.68366
▁assume	-9.68366
▁baby	-9.68366
▁barrett	-9.68366
▁beemer	-9.68366
▁bingo	-9.68366
▁bobby	-9.68366
▁bowen	-9.68366
▁busy	-9.68366
▁christmas	-9.68366
▁clay	-9.68366
▁communicate	-9.68366
▁compartment	-9.68366
▁completely	-9.68366
▁connected	-9.68366
▁desktop	-9.68366
▁ecf	-9.68366
▁elli	-9.68366
▁emerging	-9.68366
▁esther	-9.68366
▁explorer	-9.68366
▁fire	-9.68366
▁flexible	-9.68366
▁hate	-9.68366
▁heal	-9.68366
▁helpful	-9.68366
▁ifhsc	-9.68366
▁intend	-9.68366
▁lady	-9.68366
▁lease	-9.68366
▁levitra	-9.68366
▁lucky	-9.68366
▁method	-9.68366
▁normally	-9.68366
▁org	-9.68366
▁otc	-9.68366
▁piece	-9.68366
▁portion	-9.68366
▁properly	-9.68366
▁pubiisher	-9.68366
▁pulled	-9.68366
▁pvr	-9.68366
▁raise	-9.68366
▁ranking	-9.68366
▁reliance	-9.68366
▁sd	-9.68366
▁sdsnom	-9.68366
▁seneca	-9.68366
▁shot	-9.68366
▁smoking	-9.68366
▁strictly	-9.68366
▁tape	-9.68366
▁tennessee	-9.68366
▁tongue	-9.68366
▁towards	-9.68366
▁traded	-9.68366
▁urbanek	-9.68366
▁url	-9.68366
▁wil	-9.68366
▁win	-9.68366
▁0000	-9.73018
▁175	-9.73018
▁5923	-9.73018
▁850	-9.73018
▁accurate	-9.73018
▁adam	-9.73018
▁affect	-9.73018
▁ambien	-9.73018
▁ascii	-9.73018
▁attempt	-9.73018
▁bane	-9.73018
▁battery	-9.73018
▁began	-9.73018
▁block	-9.73018
▁brief	-9.73018
▁burn	-9.73018
▁cannon	-9.73018
▁chase	-9.73018
▁chief	-9.73018
▁church	-9.73018
▁coffey	-9.73018
▁conoco	-9.73018
▁consultation	-9.73018
▁correspondence	-9.73018
▁creek	-9.73018
▁dated	-9.73018
▁delivering	-9.73018
▁develop	-9.73018
▁discreet	-9.73018
▁dulce	-9.73018
▁edi	-9.73018
▁election	-9.73018
▁fear	-9.73018
▁female	-9.73018
▁fit	-9.73018
▁flw	-9.73018
▁fontbr	-9.73018
▁forecast	-9.73018
▁forwarding	-9.73018
▁gate	-9.73018
▁generated	-9.73018
▁hesitate	-9.73018
▁htmlimg	-9.73018
▁human	-9.73018
▁income	-9.73018
▁internationa	-9.73018
▁kerr	-9.73018
▁kin	-9.73018
▁larger	-9.73018
▁leaving	-9.73018
▁maintain	-9.73018
▁maximum	-9.73018
▁nascar	-9.73018
▁nigeria	-9.73018
▁obligation	-9.73018
▁organizational	-9.73018
▁overall	-9.73018
▁parking	-9.73018
▁partnership	-9.73018
▁pharmaceutical	-9.73018
▁proven	-9.73018
▁published	-9.73018
▁rally	-9.73018
▁recommended	-9.73018
▁reduced	-9.73018
▁released	-9.73018
▁requires	-9.73018
▁reward	-9.73018
▁richardson	-9.73018
▁rolling	-9.73018
▁rom	-9.73018
▁season	-9.73018
▁sometime	-9.73018
▁spl	-9.73018
▁superior	-9.73018
▁thinking	-9.73018
▁tier	-9.73018
▁till	-9.73018
▁tracking	-9.73018
▁transco	-9.73018
▁trouble	-9.73018
▁trust	-9.73018
▁vega	-9.73018
▁verified	-9.73018
▁willing	-9.73018
▁written	-9.73018
▁157288	-9.77897
▁159	-9.77897
▁330	-9.77897
▁609	-9.77897
▁6387	-9.77897
▁6757	-9.77897
▁8643	-9.77897
▁absolutely	-9.77897
▁antivirus	-9.77897
▁association	-9.77897
▁assuming	-9.77897
▁bottle	-9.77897
▁break	-9.77897
▁brought	-9.77897
▁buckley	-9.77897
▁bussell	-9.77897
▁cart	-9.77897
▁caused	-9.77897
▁cody	-9.77897
▁confidence	-9.77897
▁contacted	-9.77897
▁coordinate	-9.77897
▁court	-9.77897
▁craig	-9.77897
▁danny	-9.77897
▁dawn	-9.77897
▁designated	-9.77897
▁desire	-9.77897
▁died	-9.77897
▁direction	-9.77897
▁dry	-9.77897
▁easier	-9.77897
▁ecom	-9.77897
▁eddie	-9.77897
▁egpfc	-9.77897
▁eliminate	-9.77897
▁engineer	-9.77897
▁entertainment	-9.77897
▁exact	-9.77897
▁experiencing	-9.77897
▁extremely	-9.77897
▁fight	-9.77897
▁fortune	-9.77897
▁glo	-9.77897
▁happened	-9.77897
▁heavy	-9.77897
▁imceanotes	-9.77897
▁improved	-9.77897
▁indicative	-9.77897
▁infrastructure	-9.77897
▁installed	-9.77897
▁jay	-9.77897
▁jerry	-9.77897
▁joseph	-9.77897
▁largest	-9.77897
▁leth	-9.77897
▁license	-9.77897
▁nathan	-9.77897
▁offered	-9.77897
▁peggy	-9.77897
▁penny	-9.77897
▁produced	-9.77897
▁proprietary	-9.77897
▁represents	-9.77897
▁requesting	-9.77897
▁rev	-9.77897
▁reviewer	-9.77897
▁rolled	-9.77897
▁round	-9.77897
▁samson	-9.77897
▁separate	-9.77897
▁signature	-9.77897
▁silver	-9.77897
▁skin	-9.77897
▁solmonson	-9.77897
▁sort	-9.77897
▁staffing	-9.77897
▁steven	-9.77897
▁subscription	-9.77897
▁theresa	-9.77897
▁tie	-9.77897
▁topic	-9.77897
▁touch	-9.77897
▁trailer	-9.77897
▁treated	-9.77897
▁unfortunately	-9.77897
▁war	-9.77897
▁writeoff	-9.77897
▁139	-9.83027
▁150	-9.83027
▁156071	-9.83027
▁167	-9.83027
▁228	-9.83027
▁240	-9.83027
▁299	-9.83027
▁551	-9.83027
▁6992	-9.83027
▁888	-9.83027
▁9643	-9.83027
▁9707	-9.83027
▁accordingly	-9.83027
▁achieve	-9.83027
▁anxiety	-9.83027
▁arial	-9.83027
▁arm	-9.83027
▁atleast	-9.83027
▁beach	-9.83027
▁bias	-9.83027
▁blood	-9.83027
▁brother	-9.83027
▁bulk	-9.83027
▁cat	-9.83027
▁chinese	-9.83027
▁collect	-9.83027
▁combination	-9.83027
▁compared	-9.83027
▁cooperation	-9.83027
▁cordes	-9.83027
▁core	-9.83027
▁couid	-9.83027
▁coverage	-9.83027
▁crisis	-9.83027
▁curve	-9.83027
▁darrel	-9.83027
▁daughter	-9.83027
▁distributed	-9.83027
▁doubt	-9.83027
▁easily	-9.83027
▁edit	-9.83027
▁engel	-9.83027
▁eog	-9.83027
▁especially	-9.83027
▁exciting	-9.83027
▁failure	-9.83027
▁familiar	-9.83027
▁fcv	-9.83027
▁former	-9.83027
▁formerly	-9.83027
▁genuine	-9.83027
▁giron	-9.83027
▁gore	-9.83027
▁guest	-9.83027
▁holly	-9.83027
▁incremental	-9.83027
▁indianapolis	-9.83027
▁intra	-9.83027
▁israeli	-9.83027
▁jersey	-9.83027
▁joint	-9.83027
▁lacy	-9.83027
▁liability	-9.83027
▁lotto	-9.83027
▁macintosh	-9.83027
▁magazine	-9.83027
▁majeure	-9.83027
▁manually	-9.83027
▁matching	-9.83027
▁meant	-9.83027
▁messenger	-9.83027
▁mgmt	-9.83027
▁microcap	-9.83027
▁missed	-9.83027
▁negative	-9.83027
▁negotiation	-9.83027
▁palmer	-9.83027
▁participation	-9.83027
▁possibility	-9.83027
▁possibly	-9.83027
▁posted	-9.83027
▁pray	-9.83027
▁prefer	-9.83027
▁priority	-9.83027
▁producing	-9.83027
▁pure	-9.83027
▁refinery	-9.83027
▁regulatory	-9.83027
▁remainder	-9.83027
▁reservation	-9.83027
▁returned	-9.83027
▁secret	-9.83027
▁sender	-9.83027
▁smart	-9.83027
▁speak	-9.83027
▁submission	-9.83027
▁sutton	-9.83027
▁therein	-9.83027
▁thorough	-9.83027
▁todd	-9.83027
▁trial	-9.83027
▁trisha	-9.83027
▁turned	-9.83027
▁undervalued	-9.83027
▁valuable	-9.83027
▁valued	-9.83027
▁valve	-9.83027
▁vintage	-9.83027
▁vlagra	-9.83027
▁ward	-9.83027
▁wayne	-9.83027
▁whiting	-9.83027
▁0200	-9.88433
▁140	-9.88433
▁3000	-9.88433
▁322	-9.88433
▁349	-9.88433
▁41500	-9.88433
▁571	-9.88433
▁96008903	-9.88433
▁9676	-9.88433
▁980439	-9.88433
▁adding	-9.88433
▁adipren	-9.88433
▁agua	-9.88433
▁aid	-9.88433
▁applicable	-9.88433
▁approve	-9.88433
▁bass	-9.88433
▁beauty	-9.88433
▁boy	-9.88433
▁breaking	-9.88433
▁bringing	-9.88433
▁bush	-9.88433
▁bye	-9.88433
▁carefully	-9.88433
▁carol	-9.88433
▁catalogue	-9.88433
▁causing	-9.88433
▁clicking	-9.88433
▁collection	-9.88433
▁commitment	-9.88433
▁comparison	-9.88433
▁constitutes	-9.88433
▁continues	-9.88433
▁convenience	-9.88433
▁creating	-9.88433
▁dale	-9.88433
▁darron	-9.88433
▁deduction	-9.88433
▁der	-9.88433
▁dick	-9.88433
▁distributorjebel	-9.88433
▁ended	-9.88433
▁entering	-9.88433
▁euro	-9.88433
▁evaluation	-9.88433
▁expiration	-9.88433
▁expire	-9.88433
▁expressed	-9.88433
▁feed	-9.88433
▁finalized	-9.88433
▁florida	-9.88433
▁folk	-9.88433
▁formula	-9.88433
▁greatly	-9.88433
▁gregory	-9.88433
▁harrison	-9.88433
▁hassle	-9.88433
▁hearing	-9.88433
▁hence	-9.88433
▁highlighted	-9.88433
▁hlavaty	-9.88433
▁ich	-9.88433
▁imited	-9.88433
▁implementation	-9.88433
▁impotence	-9.88433
▁jack	-9.88433
▁journal	-9.88433
▁judge	-9.88433
▁keith	-9.88433
▁lay	-9.88433
▁led	-9.88433
▁living	-9.88433
▁login	-9.88433
▁luther	-9.88433
▁mai	-9.88433
▁manner	-9.88433
▁map	-9.88433
▁martinez	-9.88433
▁measure	-9.88433
▁messaging	-9.88433
▁mime	-9.88433
▁miningnews	-9.88433
▁mips	-9.88433
▁msn	-9.88433
▁obtain	-9.88433
▁paypal	-9.88433
▁perform	-9.88433
▁performing	-9.88433
▁plug	-9.88433
▁portal	-9.88433
▁profiled	-9.88433
▁protect	-9.88433
▁prove	-9.88433
▁redelivered	-9.88433
▁redelivery	-9.88433
▁reflected	-9.88433
▁regardless	-9.88433
▁reid	-9.88433
▁relating	-9.88433
▁samuel	-9.88433
▁sanchez	-9.88433
▁sarco	-9.88433
▁saying	-9.88433
▁seat	-9.88433
▁sever	-9.88433
▁shortly	-9.88433
▁silicon	-9.88433
▁sleep	-9.88433
▁smi	-9.88433
▁solid	-9.88433
▁sordo	-9.88433
▁southwest	-9.88433
▁spec	-9.88433
▁speedway	-9.88433
▁spent	-9.88433
▁sponsor	-9.88433
▁sugar	-9.88433
▁suggested	-9.88433
▁sylvia	-9.88433
▁technoiogies	-9.88433
▁trochta	-9.88433
▁turbotax	-9.88433
▁usually	-9.88433
▁validation	-9.88433
▁visual	-9.88433
▁warranty	-9.88433
▁wifi	-9.88433
▁000080	-9.94149
▁115	-9.94149
▁119	-9.94149
▁1394	-9.94149
▁316	-9.94149
▁514353	-9.94149
▁520	-9.94149
▁6722	-9.94149
▁720	-9.94149
▁8859	-9.94149
▁adapter	-9.94149
▁adipex	-9.94149
▁admin	-9.94149
▁affiliated	-9.94149
▁airline	-9.94149
▁amended	-9.94149
▁artprice	-9.94149
▁audit	-9.94149
▁baytown	-9.94149
▁becky	-9.94149
▁boost	-9.94149
▁brad	-9.94149
▁bus	-9.94149
▁canadian	-9.94149
▁carriere	-9.94149
▁catch	-9.94149
▁cheapest	-9.94149
▁club	-9.94149
▁comfort	-9.94149
▁consequently	-9.94149
▁consistent	-9.94149
▁cool	-9.94149
▁covered	-9.94149
▁depressant	-9.94149
▁dianne	-9.94149
▁dieting	-9.94149
▁distribute	-9.94149
▁dog	-9.94149
▁dorcheus	-9.94149
▁dose	-9.94149
▁doug	-9.94149
▁duplicate	-9.94149
▁eex	-9.94149
▁electricity	-9.94149
▁flat	-9.94149
▁forth	-9.94149
▁fosdick	-9.94149
▁germany	-9.94149
▁glad	-9.94149
▁gloria	-9.94149
▁griffith	-9.94149
▁hansen	-9.94149
▁hunter	-9.94149
▁ice	-9.94149
▁imagine	-9.94149
▁impacted	-9.94149
▁inactive	-9.94149
▁incredible	-9.94149
▁inquiry	-9.94149
▁jennings	-9.94149
▁keeping	-9.94149
▁kenne	-9.94149
▁knew	-9.94149
▁learning	-9.94149
▁li	-9.94149
▁litigation	-9.94149
▁maker	-9.94149
▁mcclure	-9.94149
▁moshou	-9.94149
▁nobody	-9.94149
▁olinger	-9.94149
▁omit	-9.94149
▁opening	-9.94149
▁ordered	-9.94149
▁owned	-9.94149
▁ownership	-9.94149
▁owns	-9.94149
▁patented	-9.94149
▁patricia	-9.94149
▁payne	-9.94149
▁pigging	-9.94149
▁pocket	-9.94149
▁pond	-9.94149
▁proceed	-9.94149
▁quite	-9.94149
▁regalis	-9.94149
▁sans	-9.94149
▁scada	-9.94149
▁seasonal	-9.94149
▁sep	-9.94149
▁seven	-9.94149
▁skill	-9.94149
▁smoke	-9.94149
▁sooner	-9.94149
▁souza	-9.94149
▁specifically	-9.94149
▁square	-9.94149
▁stevens	-9.94149
▁strength	-9.94149
▁techlite	-9.94149
▁teen	-9.94149
▁terminate	-9.94149
▁tessie	-9.94149
▁tglo	-9.94149
▁tramadol	-9.94149
▁tue	-9.94149
▁unresolved	-9.94149
▁usual	-9.94149
▁valerie	-9.94149
▁van	-9.94149
▁vary	-9.94149
▁verge	-9.94149
▁virus	-9.94149
▁001	-10.0021
▁089	-10.0021
▁107	-10.0021
▁1520	-10.0021
▁157278	-10.0021
▁1995	-10.0021
▁2630	-10.0021
▁413462	-10.0021
▁6296	-10.0021
▁absence	-10.0021
▁accepted	-10.0021
▁affected	-10.0021
▁aggressive	-10.0021
▁alcohol	-10.0021
▁allocating	-10.0021
▁annually	-10.0021
▁appeared	-10.0021
▁appreciated	-10.0021
▁appreciation	-10.0021
▁approach	-10.0021
▁architect	-10.0021
▁beneficiary	-10.0021
▁blvd	-10.0021
▁bowl	-10.0021
▁cancel	-10.0021
▁candidate	-10.0021
▁caribbean	-10.0021
▁carrier	-10.0021
▁cartier	-10.0021
▁cartoon	-10.0021
▁circulation	-10.0021
▁colorado	-10.0021
▁columbiagas	-10.0021
▁comic	-10.0021
▁compare	-10.0021
▁completeness	-10.0021
▁convenient	-10.0021
▁copied	-10.0021
▁dana	-10.0021
▁dedicated	-10.0021
▁delivers	-10.0021
▁destination	-10.0021
▁determined	-10.0021
▁developing	-10.0021
▁difficult	-10.0021
▁edge	-10.0021
▁encourage	-10.0021
▁enronavailso	-10.0021
▁experienced	-10.0021
▁explosion	-10.0021
▁explosive	-10.0021
▁feeling	-10.0021
▁filled	-10.0021
▁folder	-10.0021
▁formosa	-10.0021
▁gorons	-10.0021
▁gossett	-10.0021
▁graham	-10.0021
▁grand	-10.0021
▁gregg	-10.0021
▁growing	-10.0021
▁hector	-10.0021
▁heinrich	-10.0021
▁hm	-10.0021
▁initially	-10.0021
▁inlet	-10.0021
▁innovative	-10.0021
▁insurance	-10.0021
▁kinder	-10.0021
▁lenart	-10.0021
▁lie	-10.0021
▁luis	-10.0021
▁lyon	-10.0021
▁majorwitz	-10.0021
▁male	-10.0021
▁massive	-10.0021
▁mit	-10.0021
▁nearly	-10.0021
▁noticed	-10.0021
▁obtained	-10.0021
▁odd	-10.0021
▁olson	-10.0021
▁omega	-10.0021
▁oniine	-10.0021
▁originally	-10.0021
▁os	-10.0021
▁patience	-10.0021
▁percentage	-10.0021
▁phillip	-10.0021
▁pine	-10.0021
▁pour	-10.0021
▁produce	-10.0021
▁profitable	-10.0021
▁rac	-10.0021
▁raised	-10.0021
▁rep	-10.0021
▁reviewing	-10.0021
▁rfp	-10.0021
▁rob	-10.0021
▁row	-10.0021
▁satisfaction	-10.0021
▁shankster	-10.0021
▁signed	-10.0021
▁solely	-10.0021
▁space	-10.0021
▁specially	-10.0021
▁spur	-10.0021
▁sql	-10.0021
▁student	-10.0021
▁supervisor	-10.0021
▁swap	-10.0021
▁switch	-10.0021
▁tablet	-10.0021
▁tadalafil	-10.0021
▁tariff	-10.0021
▁task	-10.0021
▁termed	-10.0021
▁thompsonville	-10.0021
▁ton	-10.0021
▁totally	-10.0021
▁wall	-10.0021
▁whose	-10.0021
▁workshop	-10.0021
▁youth	-10.0021
▁1400	-10.0667
▁160	-10.0667
▁169	-10.0667
▁189	-10.0667
▁206	-10.0667
▁216	-10.0667
▁269	-10.0667
▁277	-10.0667
▁333	-10.0667
▁504	-10.0667
▁5555	-10.0667
▁61700	-10.0667
▁627	-10.0667
▁639615	-10.0667
▁690249	-10.0667
▁7900	-10.0667
▁8500	-10.0667
▁acrobat	-10.0667
▁advertising	-10.0667
▁allowing	-10.0667
▁amsterdam	-10.0667
▁appetite	-10.0667
▁arrow	-10.0667
▁asia	-10.0667
▁aspect	-10.0667
▁assured	-10.0667
▁attractive	-10.0667
▁auction	-10.0667
▁audio	-10.0667
▁automated	-10.0667
▁balfour	-10.0667
▁ballot	-10.0667
▁ben	-10.0667
▁beth	-10.0667
▁beyond	-10.0667
▁bible	-10.0667
▁biggest	-10.0667
▁bonus	-10.0667
▁brokered	-10.0667
▁buck	-10.0667
▁carter	-10.0667
▁chain	-10.0667
▁chart	-10.0667
▁christopher	-10.0667
▁citgo	-10.0667
▁clarification	-10.0667
▁clarissa	-10.0667
▁cleared	-10.0667
▁cole	-10.0667
▁connect	-10.0667
▁connevey	-10.0667
▁contacting	-10.0667
▁contractual	-10.0667
▁copper	-10.0667
▁cwtd	-10.0667
▁death	-10.0667
▁debt	-10.0667
▁decide	-10.0667
▁defs	-10.0667
▁del	-10.0667
▁desired	-10.0667
▁dinner	-10.0667
▁directory	-10.0667
▁disclosure	-10.0667
▁drilling	-10.0667
▁driscoll	-10.0667
▁economic	-10.0667
▁electrical	-10.0667
▁exhibit	-10.0667
▁expand	-10.0667
▁extensive	-10.0667
▁factual	-10.0667
▁faster	-10.0667
▁faye	-10.0667
▁ffffff	-10.0667
▁filed	-10.0667
▁fioricet	-10.0667
▁furthermore	-10.0667
▁garza	-10.0667
▁gepl	-10.0667
▁gov	-10.0667
▁inactivate	-10.0667
▁increasing	-10.0667
▁ingredient	-10.0667
▁injury	-10.0667
▁install	-10.0667
▁integration	-10.0667
▁interstate	-10.0667
▁ion	-10.0667
▁kingwood	-10.0667
▁kristin	-10.0667
▁leadership	-10.0667
▁lightfoot	-10.0667
▁lock	-10.0667
▁lunch	-10.0667
▁maria	-10.0667
▁mass	-10.0667
▁mcfd	-10.0667
▁mcloughlin	-10.0667
▁mention	-10.0667
▁meridia	-10.0667
▁mon	-10.0667
▁moore	-10.0667
▁mouse	-10.0667
▁neither	-10.0667
▁newsietter	-10.0667
▁northern	-10.0667
▁opt	-10.0667
▁orleans	-10.0667
▁ots	-10.0667
▁packaging	-10.0667
▁pcx	-10.0667
▁peak	-10.0667
▁physician	-10.0667
▁planned	-10.0667
▁praxair	-10.0667
▁presence	-10.0667
▁qualify	-10.0667
▁reallocated	-10.0667
▁reducing	-10.0667
▁refer	-10.0667
▁refurb	-10.0667
▁relative	-10.0667
▁reserved	-10.0667
▁ring	-10.0667
▁rise	-10.0667
▁sarmiento	-10.0667
▁shouid	-10.0667
▁sick	-10.0667
▁soldier	-10.0667
▁span	-10.0667
▁stake	-10.0667
▁strategic	-10.0667
▁swisher	-10.0667
▁tara	-10.0667
▁testing	-10.0667
▁tip	-10.0667
▁tour	-10.0667
▁tracker	-10.0667
▁twenty	-10.0667
▁unknown	-10.0667
▁variety	-10.0667
▁vicente	-10.0667
▁wagner	-10.0667
▁walk	-10.0667
▁weekly	-10.0667
▁wester	-10.0667
▁western	-10.0667
▁whenever	-10.0667
▁wood	-10.0667
▁woodland	-10.0667
▁yanowski	-10.0667
▁zyban	-10.0667
▁0500	-10.1356
▁065	-10.1356
▁20000	-10.1356
▁279	-10.1356
▁33321	-10.1356
▁384247	-10.1356
▁510	-10.1356
▁51862	-10.1356
▁5892	-10.1356
▁61000	-10.1356
▁6523	-10.1356
▁77056	-10.1356
▁8018	-10.1356
▁964	-10.1356
▁986892	-10.1356
▁actualized	-10.1356
▁alone	-10.1356
▁amelia	-10.1356
▁anbsp	-10.1356
▁announces	-10.1356
▁article	-10.1356
▁balanced	-10.1356
▁basketball	-10.1356
▁bav	-10.1356
▁binding	-10.1356
▁blay	-10.1356
▁brain	-10.1356
▁bridgeline	-10.1356
▁byron	-10.1356
▁carl	-10.1356
▁cashout	-10.1356
▁cleco	-10.1356
▁clerk	-10.1356
▁closely	-10.1356
▁closing	-10.1356
▁concept	-10.1356
▁conner	-10.1356
▁consultant	-10.1356
▁consulting	-10.1356
▁containing	-10.1356
▁coordinator	-10.1356
▁coral	-10.1356
▁cuccia	-10.1356
▁dat	-10.1356
▁dealing	-10.1356
▁den	-10.1356
▁disclose	-10.1356
▁domestic	-10.1356
▁douglas	-10.1356
▁dreyfus	-10.1356
▁egf	-10.1356
▁elected	-10.1356
▁eligible	-10.1356
▁ellenberger	-10.1356
▁encoding	-10.1356
▁equivalent	-10.1356
▁estate	-10.1356
▁ets	-10.1356
▁explain	-10.1356
▁explanation	-10.1356
▁farm	-10.1356
▁favor	-10.1356
▁finalize	-10.1356
▁finish	-10.1356
▁finished	-10.1356
▁fisher	-10.1356
▁flavin	-10.1356
▁gaming	-10.1356
▁gaza	-10.1356
▁gm	-10.1356
▁hardware	-10.1356
▁hpll	-10.1356
▁hunt	-10.1356
▁hurry	-10.1356
▁incorrectly	-10.1356
▁indicates	-10.1356
▁ine	-10.1356
▁ink	-10.1356
▁instance	-10.1356
▁inter	-10.1356
▁interpretation	-10.1356
▁introduce	-10.1356
▁investigation	-10.1356
▁ionaalphonso	-10.1356
▁lack	-10.1356
▁length	-10.1356
▁linked	-10.1356
▁lynn	-10.1356
▁marlin	-10.1356
▁meantime	-10.1356
▁menu	-10.1356
▁modify	-10.1356
▁nation	-10.1356
▁nbc	-10.1356
▁negotiated	-10.1356
▁nine	-10.1356
▁operate	-10.1356
▁operator	-10.1356
▁ortho	-10.1356
▁padre	-10.1356
▁paxil	-10.1356
▁payable	-10.1356
▁perez	-10.1356
▁perkins	-10.1356
▁permanent	-10.1356
▁portugal	-10.1356
▁prevented	-10.1356
▁progress	-10.1356
▁prohibited	-10.1356
▁prospect	-10.1356
▁rank	-10.1356
▁rating	-10.1356
▁recommendation	-10.1356
▁referring	-10.1356
▁reform	-10.1356
▁remains	-10.1356
▁restriction	-10.1356
▁revise	-10.1356
▁rodessa	-10.1356
▁sand	-10.1356
▁senate	-10.1356
▁sense	-10.1356
▁sheila	-10.1356
▁stacy	-10.1356
▁television	-10.1356
▁thompson	-10.1356
▁tired	-10.1356
▁truly	-10.1356
▁une	-10.1356
▁vioxx	-10.1356
▁warner	-10.1356
▁worse	-10.1356
▁123	-10.2098
▁125	-10.2098
▁1500	-10.2098
▁1517	-10.2098
▁1552	-10.2098
▁170	-10.2098
▁1998	-10.2098
▁234	-10.2098
▁235	-10.2098
▁252	-10.2098
▁350	-10.2098
▁450	-10.2098
▁459	-10.2098
▁6004	-10.2098
▁61500	-10.2098
▁625	-10.2098
▁6347	-10.2098
▁877	-10.2098
▁900	-10.2098
▁9434	-10.2098
▁9858	-10.2098
▁accessing	-10.2098
▁accomplish	-10.2098
▁additiona	-10.2098
▁afford	-10.2098
▁aged	-10.2098
▁agra	-10.2098
▁alland	-10.2098
▁allergy	-10.2098
▁amoco	-10.2098
▁amp	-10.2098
▁andrew	-10.2098
▁ann	-10.2098
▁barbara	-10.2098
▁beat	-10.2098
▁becomes	-10.2098
▁blow	-10.2098
▁boat	-10.2098
▁cc	-10.2098
▁cellspacing	-10.2098
▁chair	-10.2098
▁checkout	-10.2098
▁christian	-10.2098
▁christine	-10.2098
▁cinergy	-10.2098
▁cingular	-10.2098
▁claiming	-10.2098
▁cliff	-10.2098
▁combine	-10.2098
▁compensated	-10.2098
▁complex	-10.2098
▁contribute	-10.2098
▁corpus	-10.2098
▁cox	-10.2098
▁cruise	-10.2098
▁csgt	-10.2098
▁cst	-10.2098
▁customized	-10.2098
▁cutting	-10.2098
▁da	-10.2098
▁daigle	-10.2098
▁de	-10.2098
▁deposited	-10.2098
▁dept	-10.2098
▁dia	-10.2098
▁difficulty	-10.2098
▁dir	-10.2098
▁disease	-10.2098
▁display	-10.2098
▁distance	-10.2098
▁dreamwaver	-10.2098
▁dtomi	-10.2098
▁dutch	-10.2098
▁edu	-10.2098
▁efficient	-10.2098
▁enable	-10.2098
▁enbridge	-10.2098
▁established	-10.2098
▁eugene	-10.2098
▁excellent	-10.2098
▁excite	-10.2098
▁extent	-10.2098
▁felipe	-10.2098
▁figure	-10.2098
▁float	-10.2098
▁foreigner	-10.2098
▁gilbert	-10.2098
▁gray	-10.2098
▁greatest	-10.2098
▁ground	-10.2098
▁harder	-10.2098
▁hess	-10.2098
▁hier	-10.2098
▁hilcorp	-10.2098
▁hydrocodone	-10.2098
▁inciuding	-10.2098
▁independent	-10.2098
▁janice	-10.2098
▁janzen	-10.2098
▁joy	-10.2098
▁karie	-10.2098
▁knox	-10.2098
▁labor	-10.2098
▁louise	-10.2098
▁machine	-10.2098
▁mcnic	-10.2098
▁medica	-10.2098
▁miller	-10.2098
▁minimal	-10.2098
▁mistake	-10.2098
▁monica	-10.2098
▁mr	-10.2098
▁nax	-10.2098
▁numerous	-10.2098
▁pagemaker	-10.2098
▁piease	-10.2098
▁platinum	-10.2098
▁playing	-10.2098
▁political	-10.2098
▁porn	-10.2098
▁portland	-10.2098
▁postal	-10.2098
▁potentia	-10.2098
▁promise	-10.2098
▁protected	-10.2098
▁rangel	-10.2098
▁ranger	-10.2098
▁reading	-10.2098
▁reallocate	-10.2098
▁refund	-10.2098
▁reside	-10.2098
▁revolutionary	-10.2098
▁rewrite	-10.2098
▁ride	-10.2098
▁ripley	-10.2098
▁router	-10.2098
▁sam	-10.2098
▁saxet	-10.2098
▁searching	-10.2098
▁serious	-10.2098
▁shared	-10.2098
▁shirley	-10.2098
▁shortage	-10.2098
▁smtp	-10.2098
▁sole	-10.2098
▁spa	-10.2098
▁stream	-10.2098
▁subsidiary	-10.2098
▁sustained	-10.2098
▁tank	-10.2098
▁telecommunication	-10.2098
▁timeline	-10.2098
▁transported	-10.2098
▁triple	-10.2098
▁trtd	-10.2098
▁unclaimed	-10.2098
▁unlimited	-10.2098
▁usr	-10.2098
▁vocalscape	-10.2098
▁vous	-10.2098
▁webb	-10.2098
▁wel	-10.2098
▁writing	-10.2098
▁055	-10.2898
▁108	-10.2898
▁109	-10.2898
▁1601	-10.2898
▁199	-10.2898
▁207	-10.2898
▁319	-10.2898
▁33548	-10.2898
▁365	-10.2898
▁369	-10.2898
▁601	-10.2898
▁61200	-10.2898
▁6719	-10.2898
▁745589	-10.2898
▁7555	-10.2898
▁802	-10.2898
▁883	-10.2898
▁9862	-10.2898
▁acre	-10.2898
▁administrator	-10.2898
▁adobbe	-10.2898
▁alias	-10.2898
▁alisave	-10.2898
▁andy	-10.2898
▁angie	-10.2898
▁anniversary	-10.2898
▁armstrong	-10.2898
▁arrange	-10.2898
▁assign	-10.2898
▁assumed	-10.2898
▁attl	-10.2898
▁awesome	-10.2898
▁aybar	-10.2898
▁baker	-10.2898
▁barcelona	-10.2898
▁beautiful	-10.2898
▁bev	-10.2898
▁biosphere	-10.2898
▁bounce	-10.2898
▁bundle	-10.2898
▁bypass	-10.2898
▁calgary	-10.2898
▁cartridge	-10.2898
▁cdrw	-10.2898
▁cdyv	-10.2898
▁celebration	-10.2898
▁checking	-10.2898
▁cholesterol	-10.2898
▁cigarette	-10.2898
▁clarify	-10.2898
▁combined	-10.2898
▁commence	-10.2898
▁component	-10.2898
▁comprehensive	-10.2898
▁conditioning	-10.2898
▁conversion	-10.2898
▁corner	-10.2898
▁cove	-10.2898
▁croatia	-10.2898
▁cry	-10.2898
▁damage	-10.2898
▁decade	-10.2898
▁deficit	-10.2898
▁differently	-10.2898
▁discover	-10.2898
▁discovery	-10.2898
▁donation	-10.2898
▁downloads	-10.2898
▁downstream	-10.2898
▁dropped	-10.2898
▁dupont	-10.2898
▁earned	-10.2898
▁earth	-10.2898
▁economics	-10.2898
▁emai	-10.2898
▁emergency	-10.2898
▁english	-10.2898
▁enhance	-10.2898
▁enlargement	-10.2898
▁entergy	-10.2898
▁environmental	-10.2898
▁equal	-10.2898
▁essential	-10.2898
▁establish	-10.2898
▁estimating	-10.2898
▁everybody	-10.2898
▁excel	-10.2898
▁expansion	-10.2898
▁explained	-10.2898
▁facilitate	-10.2898
▁faxed	-10.2898
▁flanagan	-10.2898
▁focused	-10.2898
▁fresh	-10.2898
▁galveston	-10.2898
▁genaro	-10.2898
▁generally	-10.2898
▁generate	-10.2898
▁generating	-10.2898
▁getitbest	-10.2898
▁gissin	-10.2898
▁golden	-10.2898
▁grab	-10.2898
▁hakeem	-10.2898
▁harassment	-10.2898
▁heath	-10.2898
▁helping	-10.2898
▁hgpl	-10.2898
▁highlight	-10.2898
▁hplr	-10.2898
▁identifying	-10.2898
▁identity	-10.2898
▁ina	-10.2898
▁installation	-10.2898
▁insure	-10.2898
▁integrity	-10.2898
▁intelligence	-10.2898
▁interesting	-10.2898
▁istorage	-10.2898
▁joan	-10.2898
▁joined	-10.2898
▁joining	-10.2898
▁karry	-10.2898
▁klein	-10.2898
▁kris	-10.2898
▁laid	-10.2898
▁launched	-10.2898
▁lewis	-10.2898
▁lighting	-10.2898
▁listen	-10.2898
▁lord	-10.2898
▁madam	-10.2898
▁mailer	-10.2898
▁matthew	-10.2898
▁mexico	-10.2898
▁michelle	-10.2898
▁midpoint	-10.2898
▁migrated	-10.2898
▁minus	-10.2898
▁mother	-10.2898
▁movement	-10.2898
▁mutual	-10.2898
▁nelson	-10.2898
▁nomed	-10.2898
▁northeast	-10.2898
▁oak	-10.2898
▁onto	-10.2898
▁outlet	-10.2898
▁overseas	-10.2898
▁patsy	-10.2898
▁peter	-10.2898
▁pgp	-10.2898
▁phase	-10.2898
▁phoned	-10.2898
▁pink	-10.2898
▁pooling	-10.2898
▁powder	-10.2898
▁powell	-10.2898
▁printed	-10.2898
▁prom	-10.2898
▁pulling	-10.2898
▁raymond	-10.2898
▁registering	-10.2898
▁republic	-10.2898
▁residue	-10.2898
▁reuters	-10.2898
▁rhonda	-10.2898
▁robinson	-10.2898
▁roger	-10.2898
▁ronald	-10.2898
▁sandy	-10.2898
▁sarah	-10.2898
▁satisfactory	-10.2898
▁saudi	-10.2898
▁secured	-10.2898
▁significantly	-10.2898
▁sitting	-10.2898
▁sky	-10.2898
▁solve	-10.2898
▁speaking	-10.2898
▁sperm	-10.2898
▁staab	-10.2898
▁stage	-10.2898
▁steel	-10.2898
▁stuart	-10.2898
▁stupid	-10.2898
▁subtotal	-10.2898
▁supposed	-10.2898
▁surprise	-10.2898
▁tackett	-10.2898
▁targeted	-10.2898
▁technoiogy	-10.2898
▁temporary	-10.2898
▁tied	-10.2898
▁tight	-10.2898
▁tonya	-10.2898
▁toward	-10.2898
▁transmitted	-10.2898
▁treat	-10.2898
▁turnaround	-10.2898
▁upcoming	-10.2898
▁upstream	-10.2898
▁utilizing	-10.2898
▁vela	-10.2898
▁versus	-10.2898
▁von	-10.2898
▁washington	-10.2898
▁water	-10.2898
▁wild	-10.2898
▁wonderful	-10.2898
▁worry	-10.2898
▁ypil	-10.2898
▁005	-10.3768
▁015	-10.3768
▁085	-10.3768
▁104	-10.3768
▁113	-10.3768
▁135	-10.3768
▁203	-10.3768
▁212225	-10.3768
▁309	-10.3768
▁312	-10.3768
▁329	-10.3768
▁355	-10.3768
▁358	-10.3768
▁368	-10.3768
▁444	-10.3768
▁457	-10.3768
▁550	-10.3768
▁562	-10.3768
▁6343	-10.3768
▁650	-10.3768
▁651	-10.3768
▁667	-10.3768
▁6725	-10.3768
▁917	-10.3768
▁96035668	-10.3768
▁984229	-10.3768
▁9889	-10.3768
▁acheive	-10.3768
▁acting	-10.3768
▁activate	-10.3768
▁aimemail	-10.3768
▁alex	-10.3768
▁alpine	-10.3768
▁angeles	-10.3768
▁anwar	-10.3768
▁ar	-10.3768
▁arrive	-10.3768
▁asp	-10.3768
▁authorized	-10.3768
▁ave	-10.3768
▁background	-10.3768
▁basic	-10.3768
▁bear	-10.3768
▁became	-10.3768
▁begun	-10.3768
▁bennett	-10.3768
▁bidweek	-10.3768
▁bigger	-10.3768
▁bin	-10.3768
▁brandee	-10.3768
▁brcc	-10.3768
▁breakout	-10.3768
▁bvjkiu	-10.3768
▁calculation	-10.3768
▁camden	-10.3768
▁carla	-10.3768
▁carrie	-10.3768
▁cautioned	-10.3768
▁challenge	-10.3768
▁chat	-10.3768
▁christi	-10.3768
▁coal	-10.3768
▁commerce	-10.3768
▁complimentary	-10.3768
▁conduct	-10.3768
▁confirming	-10.3768
▁confusion	-10.3768
▁congratulating	-10.3768
▁consolidate	-10.3768
▁constitute	-10.3768
▁consumption	-10.3768
▁continuous	-10.3768
▁credited	-10.3768
▁dawes	-10.3768
▁deep	-10.3768
▁defense	-10.3768
▁deficiency	-10.3768
▁definitely	-10.3768
▁dennis	-10.3768
▁deserve	-10.3768
▁developer	-10.3768
▁directed	-10.3768
▁discloses	-10.3768
▁division	-10.3768
▁drawing	-10.3768
▁drawn	-10.3768
▁drn	-10.3768
▁dysfunction	-10.3768
▁earliest	-10.3768
▁easter	-10.3768
▁edison	-10.3768
▁element	-10.3768
▁empty	-10.3768
▁erms	-10.3768
▁exceed	-10.3768
▁execute	-10.3768
▁execution	-10.3768
▁expanding	-10.3768
▁exxonmobil	-10.3768
▁firework	-10.3768
▁food	-10.3768
▁forced	-10.3768
▁ford	-10.3768
▁fox	-10.3768
▁fraction	-10.3768
▁frame	-10.3768
▁freedom	-10.3768
▁garcia	-10.3768
▁geec	-10.3768
▁gen	-10.3768
▁generlc	-10.3768
▁gentleman	-10.3768
▁greene	-10.3768
▁grew	-10.3768
▁hadix	-10.3768
▁handheldmed	-10.3768
▁hastings	-10.3768
▁headache	-10.3768
▁headed	-10.3768
▁hellosoft	-10.3768
▁historically	-10.3768
▁hotline	-10.3768
▁huahao	-10.3768
▁humble	-10.3768
▁ideal	-10.3768
▁impossible	-10.3768
▁india	-10.3768
▁insider	-10.3768
▁institution	-10.3768
▁interim	-10.3768
▁invoive	-10.3768
▁israel	-10.3768
▁jane	-10.3768
▁jayant	-10.3768
▁jump	-10.3768
▁kenny	-10.3768
▁keno	-10.3768
▁kill	-10.3768
▁krishnaswamy	-10.3768
▁laser	-10.3768
▁liquidation	-10.3768
▁lobo	-10.3768
▁loop	-10.3768
▁lorraine	-10.3768
▁los	-10.3768
▁lqgcibz	-10.3768
▁mailed	-10.3768
▁mailman	-10.3768
▁mao	-10.3768
▁marketer	-10.3768
▁marshall	-10.3768
▁maya	-10.3768
▁medic	-10.3768
▁meritenergy	-10.3768
▁mick	-10.3768
▁misleading	-10.3768
▁mixed	-10.3768
▁mjg	-10.3768
▁moody	-10.3768
▁named	-10.3768
▁nancy	-10.3768
▁neuner	-10.3768
▁newpower	-10.3768
▁offset	-10.3768
▁offsystem	-10.3768
▁ogunbunmi	-10.3768
▁oxy	-10.3768
▁passport	-10.3768
▁paycheck	-10.3768
▁penalty	-10.3768
▁perhaps	-10.3768
▁pge	-10.3768
▁politician	-10.3768
▁positioned	-10.3768
▁possession	-10.3768
▁pound	-10.3768
▁preferred	-10.3768
▁programming	-10.3768
▁prompt	-10.3768
▁propecia	-10.3768
▁protects	-10.3768
▁proud	-10.3768
▁qualified	-10.3768
▁quoted	-10.3768
▁race	-10.3768
▁recommend	-10.3768
▁redirects	-10.3768
▁redraft	-10.3768
▁relevant	-10.3768
▁replaced	-10.3768
▁replacement	-10.3768
▁reported	-10.3768
▁reproduction	-10.3768
▁revealed	-10.3768
▁rfid	-10.3768
▁rice	-10.3768
▁rocket	-10.3768
▁rodney	-10.3768
▁roos	-10.3768
▁royalty	-10.3768
▁sabine	-10.3768
▁scotty	-10.3768
▁scribner	-10.3768
▁seeing	-10.3768
▁series	-10.3768
▁settelement	-10.3768
▁settle	-10.3768
▁sherry	-10.3768
▁shift	-10.3768
▁showed	-10.3768
▁sidebacks	-10.3768
▁simulator	-10.3768
▁song	-10.3768
▁speaker	-10.3768
▁spending	-10.3768
▁spokesman	-10.3768
▁spread	-10.3768
▁srm	-10.3768
▁strongly	-10.3768
▁substantial	-10.3768
▁supported	-10.3768
▁suppose	-10.3768
▁suspension	-10.3768
▁svajian	-10.3768
▁sweet	-10.3768
▁swiber	-10.3768
▁sybase	-10.3768
▁tdtd	-10.3768
▁tee	-10.3768
▁telecom	-10.3768
▁terminal	-10.3768
▁thirty	-10.3768
▁toni	-10.3768
▁toronto	-10.3768
▁traffic	-10.3768
▁tricia	-10.3768
▁trivia	-10.3768
▁tune	-10.3768
▁unsubscription	-10.3768
▁vastar	-10.3768
▁vision	-10.3768
▁voicemail	-10.3768
▁ware	-10.3768
▁weightloss	-10.3768
▁westmoreland	-10.3768
▁wire	-10.3768
▁wonder	-10.3768
▁xga	-10.3768
▁xph	-10.3768
▁xual	-10.3768
▁yard	-10.3768
▁zapata	-10.3768
▁025	-10.4721
▁1005	-10.4721
▁10545	-10.4721
▁135714	-10.4721
▁144271	-10.4721
▁179	-10.4721
▁193	-10.4721
▁1960	-10.4721
▁208	-10.4721
▁2500	-10.4721
▁254	-10.4721
▁256	-10.4721
▁266	-10.4721
▁315	-10.4721
▁4000	-10.4721
▁404	-10.4721
▁4555	-10.4721
▁475	-10.4721
▁477	-10.4721
▁499	-10.4721
▁519	-10.4721
▁5688	-10.4721
▁573	-10.4721
▁576	-10.4721
▁60747	-10.4721
▁616	-10.4721
▁6315	-10.4721
▁6677	-10.4721
▁6892	-10.4721
▁77388	-10.4721
▁7783	-10.4721
▁817	-10.4721
▁848	-10.4721
▁8743	-10.4721
▁886	-10.4721
▁918	-10.4721
▁93836	-10.4721
▁9618	-10.4721
▁981225	-10.4721
▁abacustech	-10.4721
▁abdominal	-10.4721
▁accomplishment	-10.4721
▁acy	-10.4721
▁alan	-10.4721
▁altra	-10.4721
▁andrea	-10.4721
▁anonymous	-10.4721
▁answered	-10.4721
▁antoinette	-10.4721
▁anymore	-10.4721
▁apology	-10.4721
▁appliance	-10.4721
▁arabia	-10.4721
▁aside	-10.4721
▁auditor	-10.4721
▁automate	-10.4721
▁automatic	-10.4721
▁avaiiable	-10.4721
▁backout	-10.4721
▁basetxt	-10.4721
▁bay	-10.4721
▁bell	-10.4721
▁birthday	-10.4721
▁blanchard	-10.4721
▁bone	-10.4721
▁bractive	-10.4721
▁branch	-10.4721
▁brrating	-10.4721
▁bug	-10.4721
▁burchfield	-10.4721
▁cancelled	-10.4721
▁career	-10.4721
▁carey	-10.4721
▁carried	-10.4721
▁casino	-10.4721
▁caught	-10.4721
▁chamber	-10.4721
▁chantelle	-10.4721
▁chicago	-10.4721
▁clock	-10.4721
▁cnn	-10.4721
▁comello	-10.4721
▁commonwealth	-10.4721
▁complication	-10.4721
▁con	-10.4721
▁conclusion	-10.4721
▁consult	-10.4721
▁contractor	-10.4721
▁controlled	-10.4721
▁convert	-10.4721
▁coo	-10.4721
▁corresponding	-10.4721
▁costilla	-10.4721
▁counter	-10.4721
▁cubic	-10.4721
▁daddy	-10.4721
▁dba	-10.4721
▁ddsr	-10.4721
▁decatherms	-10.4721
▁default	-10.4721
▁derm	-10.4721
▁described	-10.4721
▁dew	-10.4721
▁diabetes	-10.4721
▁diet	-10.4721
▁differential	-10.4721
▁disclaimer	-10.4721
▁distributor	-10.4721
▁divide	-10.4721
▁downtime	-10.4721
▁dress	-10.4721
▁drew	-10.4721
▁drill	-10.4721
▁dscottl	-10.4721
▁dun	-10.4721
▁earning	-10.4721
▁earthlink	-10.4721
▁ease	-10.4721
▁ebb	-10.4721
▁effectively	-10.4721
▁ellen	-10.4721
▁employer	-10.4721
▁engine	-10.4721
▁eogresources	-10.4721
▁eventually	-10.4721
▁evidence	-10.4721
▁exampies	-10.4721
▁excited	-10.4721
▁exempt	-10.4721
▁exploded	-10.4721
▁fail	-10.4721
▁failed	-10.4721
▁faith	-10.4721
▁favorable	-10.4721
▁favorite	-10.4721
▁fbgo	-10.4721
▁felt	-10.4721
▁fifty	-10.4721
▁fiiings	-10.4721
▁football	-10.4721
▁forgot	-10.4721
▁formed	-10.4721
▁foundation	-10.4721
▁frayre	-10.4721
▁gerald	-10.4721
▁gonzales	-10.4721
▁guidance	-10.4721
▁gun	-10.4721
▁haben	-10.4721
▁haley	-10.4721
▁hardy	-10.4721
▁hawaii	-10.4721
▁hedstrom	-10.4721
▁hell	-10.4721
▁helmerich	-10.4721
▁hereto	-10.4721
▁hgh	-10.4721
▁hired	-10.4721
▁hodge	-10.4721
▁hogan	-10.4721
▁honor	-10.4721
▁hoop	-10.4721
▁hourly	-10.4721
▁htmlview	-10.4721
▁hurt	-10.4721
▁illinois	-10.4721
▁imelda	-10.4721
▁indutrial	-10.4721
▁ing	-10.4721
▁injection	-10.4721
▁instantly	-10.4721
▁integrated	-10.4721
▁interruptible	-10.4721
▁irena	-10.4721
▁isp	-10.4721
▁ivhm	-10.4721
▁jacqueline	-10.4721
▁jake	-10.4721
▁jefferson	-10.4721
▁jody	-10.4721
▁joyce	-10.4721
▁juliann	-10.4721
▁kam	-10.4721
▁kendall	-10.4721
▁killer	-10.4721
▁kitchen	-10.4721
▁kleberg	-10.4721
▁kwbt	-10.4721
▁label	-10.4721
▁lane	-10.4721
▁lasting	-10.4721
▁lefta	-10.4721
▁lehman	-10.4721
▁licarione	-10.4721
▁lilly	-10.4721
▁limitation	-10.4721
▁locate	-10.4721
▁loo	-10.4721
▁loving	-10.4721
▁machleit	-10.4721
▁mad	-10.4721
▁majority	-10.4721
▁margin	-10.4721
▁marketplace	-10.4721
▁married	-10.4721
▁minnesota	-10.4721
▁momentum	-10.4721
▁montana	-10.4721
▁mor	-10.4721
▁mouth	-10.4721
▁multilanguage	-10.4721
▁multipart	-10.4721
▁nathaniel	-10.4721
▁nationa	-10.4721
▁newly	-10.4721
▁oniy	-10.4721
▁onshore	-10.4721
▁ooo	-10.4721
▁origin	-10.4721
▁owes	-10.4721
▁palm	-10.4721
▁peyton	-10.4721
▁pgpu	-10.4721
▁pgtt	-10.4721
▁piaced	-10.4721
▁piaget	-10.4721
▁pico	-10.4721
▁played	-10.4721
▁plenty	-10.4721
▁presented	-10.4721
▁prevent	-10.4721
▁projected	-10.4721
▁pulp	-10.4721
▁purpa	-10.4721
▁quot	-10.4721
▁radio	-10.4721
▁ran	-10.4721
▁random	-10.4721
▁recognize	-10.4721
▁reed	-10.4721
▁reg	-10.4721
▁regina	-10.4721
▁relaxant	-10.4721
▁remitted	-10.4721
▁replace	-10.4721
▁retain	-10.4721
▁rose	-10.4721
▁rough	-10.4721
▁rsvp	-10.4721
▁satisfied	-10.4721
▁script	-10.4721
▁secondary	-10.4721
▁sectionl	-10.4721
▁seeking	-10.4721
▁segment	-10.4721
▁seminar	-10.4721
▁setup	-10.4721
▁shannon	-10.4721
▁shaped	-10.4721
▁sharing	-10.4721
▁shirt	-10.4721
▁shlpp	-10.4721
▁shoot	-10.4721
▁signing	-10.4721
▁sister	-10.4721
▁soar	-10.4721
▁spacer	-10.4721
▁spanbr	-10.4721
▁startup	-10.4721
▁sterling	-10.4721
▁stewart	-10.4721
▁stivers	-10.4721
▁stress	-10.4721
▁sunsail	-10.4721
▁suspend	-10.4721
▁tago	-10.4721
▁teach	-10.4721
▁tested	-10.4721
▁thanksgiving	-10.4721
▁tillison	-10.4721
▁tomcat	-10.4721
▁totaling	-10.4721
▁transferred	-10.4721
▁traveler	-10.4721
▁tree	-10.4721
▁truth	-10.4721
▁ultram	-10.4721
▁utilize	-10.4721
▁val	-10.4721
▁viewing	-10.4721
▁vnf	-10.4721
▁volatile	-10.4721
▁vote	-10.4721
▁wamu	-10.4721
▁wet	-10.4721
▁wind	-10.4721
▁wit	-10.4721
▁withdrawal	-10.4721
▁wyoming	-10.4721
▁wysak	-10.4721
▁xanaax	-10.4721
▁zenith	-10.4721
▁020	-10.5775
▁0984132	-10.5775
▁0984179	-10.5775
▁102	-10.5775
▁103	-10.5775
▁118	-10.5775
▁138	-10.5775
▁209	-10.5775
▁2100	-10.5775
▁246	-10.5775
▁269123	-10.5775
▁2975	-10.5775
▁301	-10.5775
▁305	-10.5775
▁327	-10.5775
▁4002	-10.5775
▁426	-10.5775
▁442	-10.5775
▁449	-10.5775
▁47472	-10.5775
▁4823	-10.5775
▁501869	-10.5775
▁5519	-10.5775
▁580	-10.5775
▁5953	-10.5775
▁6063	-10.5775
▁60800	-10.5775
▁6598	-10.5775
▁668	-10.5775
▁6884	-10.5775
▁7548	-10.5775
▁77379	-10.5775
▁7800	-10.5775
▁811	-10.5775
▁832	-10.5775
▁847	-10.5775
▁89107	-10.5775
▁906	-10.5775
▁96026573	-10.5775
▁9848	-10.5775
▁990	-10.5775
▁abiiity	-10.5775
▁absolute	-10.5775
▁accordance	-10.5775
▁adventure	-10.5775
▁advisory	-10.5775
▁afraid	-10.5775
▁allixon	-10.5775
▁alysia	-10.5775
▁analyze	-10.5775
▁angela	-10.5775
▁anna	-10.5775
▁anticipate	-10.5775
▁anybody	-10.5775
▁app	-10.5775
▁appendix	-10.5775
▁applied	-10.5775
▁arise	-10.5775
▁army	-10.5775
▁assure	-10.5775
▁attach	-10.5775
▁audrey	-10.5775
▁author	-10.5775
▁backgammon	-10.5775
▁backup	-10.5775
▁bag	-10.5775
▁balancing	-10.5775
▁barry	-10.5775
▁bayou	-10.5775
▁bird	-10.5775
▁bless	-10.5775
▁borland	-10.5775
▁bra	-10.5775
▁breakdown	-10.5775
▁burning	-10.5775
▁caffeine	-10.5775
▁captured	-10.5775
▁casing	-10.5775
▁certified	-10.5775
▁champion	-10.5775
▁charging	-10.5775
▁chuck	-10.5775
▁cinm	-10.5775
▁citce	-10.5775
▁citizensr	-10.5775
▁claimed	-10.5775
▁clarkston	-10.5775
▁clearing	-10.5775
▁cma	-10.5775
▁coaching	-10.5775
▁cock	-10.5775
▁columbus	-10.5775
▁commissioner	-10.5775
▁compatible	-10.5775
▁completing	-10.5775
▁conducting	-10.5775
▁conjunction	-10.5775
▁consideration	-10.5775
▁controller	-10.5775
▁covenant	-10.5775
▁crazy	-10.5775
▁crm	-10.5775
▁crook	-10.5775
▁cummins	-10.5775
▁currentiy	-10.5775
▁curry	-10.5775
▁cycle	-10.5775
▁cyndie	-10.5775
▁dad	-10.5775
▁dead	-10.5775
▁deaton	-10.5775
▁debate	-10.5775
▁debit	-10.5775
▁delphi	-10.5775
▁demonstrate	-10.5775
▁denver	-10.5775
▁depth	-10.5775
▁dimension	-10.5775
▁discrete	-10.5775
▁disk	-10.5775
▁disregard	-10.5775
▁donnie	-10.5775
▁dora	-10.5775
▁downloading	-10.5775
▁downtown	-10.5775
▁dream	-10.5775
▁durable	-10.5775
▁economy	-10.5775
▁edith	-10.5775
▁educational	-10.5775
▁egg	-10.5775
▁elgin	-10.5775
▁emission	-10.5775
▁erectile	-10.5775
▁esteem	-10.5775
▁eugenio	-10.5775
▁exe	-10.5775
▁exists	-10.5775
▁expanded	-10.5775
▁fac	-10.5775
▁fairly	-10.5775
▁felicia	-10.5775
▁filling	-10.5775
▁firewall	-10.5775
▁forgotten	-10.5775
▁freeman	-10.5775
▁frequently	-10.5775
▁friedman	-10.5775
▁friendly	-10.5775
▁frontera	-10.5775
▁funding	-10.5775
▁garrison	-10.5775
▁gem	-10.5775
▁gordon	-10.5775
▁greeting	-10.5775
▁guideline	-10.5775
▁hang	-10.5775
▁heading	-10.5775
▁headline	-10.5775
▁helped	-10.5775
▁hgm	-10.5775
▁hidden	-10.5775
▁highland	-10.5775
▁host	-10.5775
▁hosting	-10.5775
▁icon	-10.5775
▁ill	-10.5775
▁implement	-10.5775
▁impression	-10.5775
▁incentive	-10.5775
▁inconvenience	-10.5775
▁intranet	-10.5775
▁introducing	-10.5775
▁invoicing	-10.5775
▁involving	-10.5775
▁iogn	-10.5775
▁ire	-10.5775
▁ise	-10.5775
▁itinerary	-10.5775
▁jesus	-10.5775
▁judy	-10.5775
▁kdstewart	-10.5775
▁kemp	-10.5775
▁keyboard	-10.5775
▁keyword	-10.5775
▁korea	-10.5775
▁lan	-10.5775
▁laporte	-10.5775
▁lb	-10.5775
▁leak	-10.5775
▁levy	-10.5775
▁liberty	-10.5775
▁lockhart	-10.5775
▁lubrizol	-10.5775
▁lump	-10.5775
▁maintaining	-10.5775
▁mapping	-10.5775
▁martha	-10.5775
▁mcconnell	-10.5775
▁mcmullen	-10.5775
▁mega	-10.5775
▁mgr	-10.5775
▁mmcf	-10.5775
▁mnei	-10.5775
▁moderate	-10.5775
▁moscoso	-10.5775
▁muller	-10.5775
▁nationwide	-10.5775
▁native	-10.5775
▁nature	-10.5775
▁nd	-10.5775
▁nng	-10.5775
▁nominal	-10.5775
▁norma	-10.5775
▁object	-10.5775
▁operates	-10.5775
▁pan	-10.5775
▁paperwork	-10.5775
▁patrick	-10.5775
▁pci	-10.5775
▁phil	-10.5775
▁pians	-10.5775
▁pil	-10.5775
▁pilot	-10.5775
▁poor	-10.5775
▁pose	-10.5775
▁preference	-10.5775
▁prelim	-10.5775
▁preparing	-10.5775
▁priice	-10.5775
▁printer	-10.5775
▁privileged	-10.5775
▁projecting	-10.5775
▁prospectus	-10.5775
▁purchaser	-10.5775
▁quark	-10.5775
▁quarterly	-10.5775
▁rain	-10.5775
▁rainbow	-10.5775
▁ramesh	-10.5775
▁ranked	-10.5775
▁rapid	-10.5775
▁rare	-10.5775
▁re	-10.5775
▁reconciliation	-10.5775
▁recovery	-10.5775
▁refinance	-10.5775
▁reflecting	-10.5775
▁refurbished	-10.5775
▁regulated	-10.5775
▁relates	-10.5775
▁relied	-10.5775
▁remind	-10.5775
▁remittance	-10.5775
▁removal	-10.5775
▁retroactive	-10.5775
▁rid	-10.5775
▁riesz	-10.5775
▁ron	-10.5775
▁russia	-10.5775
▁ruth	-10.5775
▁salt	-10.5775
▁santa	-10.5775
▁satellite	-10.5775
▁scenario	-10.5775
▁schwarz	-10.5775
▁seemed	-10.5775
▁semester	-10.5775
▁sends	-10.5775
▁shake	-10.5775
▁shane	-10.5775
▁shape	-10.5775
▁sharma	-10.5775
▁shuler	-10.5775
▁sie	-10.5775
▁signer	-10.5775
▁sized	-10.5775
▁sleeping	-10.5775
▁slot	-10.5775
▁smooth	-10.5775
▁sometimes	-10.5775
▁somewhere	-10.5775
▁spe	-10.5775
▁stating	-10.5775
▁staying	-10.5775
▁stokes	-10.5775
▁stood	-10.5775
▁stopped	-10.5775
▁straight	-10.5775
▁strange	-10.5775
▁structural	-10.5775
▁structuring	-10.5775
▁stub	-10.5775
▁successfully	-10.5775
▁surge	-10.5775
▁suspended	-10.5775
▁swiss	-10.5775
▁talent	-10.5775
▁technique	-10.5775
▁terrorist	-10.5775
▁therapy	-10.5775
▁toll	-10.5775
▁transforming	-10.5775
▁treasury	-10.5775
▁trtrtd	-10.5775
▁truck	-10.5775
▁truong	-10.5775
▁turbine	-10.5775
▁turning	-10.5775
▁uacp	-10.5775
▁university	-10.5775
▁unnecessary	-10.5775
▁unpathed	-10.5775
▁unsere	-10.5775
▁updating	-10.5775
▁urge	-10.5775
▁vente	-10.5775
▁versionsfeatures	-10.5775
▁vest	-10.5775
▁viking	-10.5775
▁villanueva	-10.5775
▁virtual	-10.5775
▁visiting	-10.5775
▁vuitton	-10.5775
▁vuittonet	-10.5775
▁wealth	-10.5775
▁whomever	-10.5775
▁wir	-10.5775
▁wondering	-10.5775
▁wor	-10.5775
▁workspace	-10.5775
▁wright	-10.5775
▁yore	-10.5775
▁002	-10.6953
▁004	-10.6953
▁083	-10.6953
▁108058	-10.6953
▁111	-10.6953
▁1155	-10.6953
▁143	-10.6953
▁148376	-10.6953
▁153	-10.6953
▁1553	-10.6953
▁1856	-10.6953
▁188	-10.6953
▁1997	-10.6953
▁218	-10.6953
▁221	-10.6953
▁223	-10.6953
▁227	-10.6953
▁230	-10.6953
▁241	-10.6953
▁259	-10.6953
▁288	-10.6953
▁338634	-10.6953
▁3527	-10.6953
▁359	-10.6953
▁370	-10.6953
▁375	-10.6953
▁3859	-10.6953
▁410	-10.6953
▁439	-10.6953
▁440	-10.6953
▁466305	-10.6953
▁482	-10.6953
▁529856	-10.6953
▁5310	-10.6953
▁547201	-10.6953
▁584	-10.6953
▁639612	-10.6953
▁654	-10.6953
▁685	-10.6953
▁6905	-10.6953
▁7300	-10.6953
▁7500	-10.6953
▁785	-10.6953
▁801	-10.6953
▁833	-10.6953
▁866	-10.6953
▁9307	-10.6953
▁9658	-10.6953
▁985077	-10.6953
▁9871	-10.6953
▁9876	-10.6953
▁999	-10.6953
▁abuse	-10.6953
▁accommodate	-10.6953
▁acock	-10.6953
▁acquired	-10.6953
▁affair	-10.6953
▁affecting	-10.6953
▁aforementioned	-10.6953
▁agenda	-10.6953
▁aging	-10.6953
▁aiso	-10.6953
▁amendment	-10.6953
▁amerada	-10.6953
▁anne	-10.6953
▁aoa	-10.6953
▁aoffa	-10.6953
▁apologize	-10.6953
▁arthur	-10.6953
▁ativan	-10.6953
▁attending	-10.6953
▁audience	-10.6953
▁autodesk	-10.6953
▁autry	-10.6953
▁backed	-10.6953
▁barclays	-10.6953
▁bates	-10.6953
▁bayer	-10.6953
▁bci	-10.6953
▁beer	-10.6953
▁belong	-10.6953
▁bet	-10.6953
▁biel	-10.6953
▁blast	-10.6953
▁bluetooth	-10.6953
▁boeing	-10.6953
▁boundary	-10.6953
▁brackett	-10.6953
▁branded	-10.6953
▁brant	-10.6953
▁bridging	-10.6953
▁browse	-10.6953
▁bubert	-10.6953
▁bunny	-10.6953
▁burst	-10.6953
▁cameron	-10.6953
▁camlem	-10.6953
▁candy	-10.6953
▁cantrell	-10.6953
▁capsule	-10.6953
▁cargo	-10.6953
▁cbs	-10.6953
▁celebrate	-10.6953
▁celebrex	-10.6953
▁chan	-10.6953
▁chapman	-10.6953
▁chapter	-10.6953
▁charity	-10.6953
▁childrens	-10.6953
▁christina	-10.6953
▁circumstance	-10.6953
▁citizen	-10.6953
▁clearly	-10.6953
▁columbia	-10.6953
▁comfortable	-10.6953
▁commenced	-10.6953
▁competing	-10.6953
▁competitor	-10.6953
▁conclude	-10.6953
▁conducted	-10.6953
▁confess	-10.6953
▁confident	-10.6953
▁confused	-10.6953
▁connectivity	-10.6953
▁continent	-10.6953
▁converted	-10.6953
▁copyright	-10.6953
▁cpi	-10.6953
▁crack	-10.6953
▁creditor	-10.6953
▁ctprty	-10.6953
▁davy	-10.6953
▁defined	-10.6953
▁delhi	-10.6953
▁deluxe	-10.6953
▁denny	-10.6953
▁describe	-10.6953
▁detect	-10.6953
▁determining	-10.6953
▁dietrich	-10.6953
▁displayed	-10.6953
▁dissolve	-10.6953
▁diverse	-10.6953
▁doll	-10.6953
▁draftsman	-10.6953
▁dreamweaver	-10.6953
▁driving	-10.6953
▁dsl	-10.6953
▁duane	-10.6953
▁dwight	-10.6953
▁ebay	-10.6953
▁edited	-10.6953
▁effected	-10.6953
▁elimination	-10.6953
▁elliott	-10.6953
▁embassy	-10.6953
▁embedded	-10.6953
▁employment	-10.6953
▁ending	-10.6953
▁england	-10.6953
▁enronoptions	-10.6953
▁entirely	-10.6953
▁equally	-10.6953
▁equiva	-10.6953
▁ercot	-10.6953
▁es	-10.6953
▁evelyn	-10.6953
▁exam	-10.6953
▁exit	-10.6953
▁expe	-10.6953
▁fancy	-10.6953
▁fatah	-10.6953
▁fed	-10.6953
▁fedex	-10.6953
▁fired	-10.6953
▁fletcher	-10.6953
▁flex	-10.6953
▁flexibility	-10.6953
▁forest	-10.6953
▁forster	-10.6953
▁forty	-10.6953
▁fourth	-10.6953
▁francis	-10.6953
▁francisco	-10.6953
▁freeport	-10.6953
▁gbic	-10.6953
▁generator	-10.6953
▁genex	-10.6953
▁geologist	-10.6953
▁glass	-10.6953
▁gough	-10.6953
▁grandma	-10.6953
▁granted	-10.6953
▁gross	-10.6953
▁haas	-10.6953
▁habit	-10.6953
▁hamas	-10.6953
▁healthcare	-10.6953
▁healthy	-10.6953
▁henry	-10.6953
▁hin	-10.6953
▁honey	-10.6953
▁hood	-10.6953
▁hook	-10.6953
▁hstj	-10.6953
▁ialis	-10.6953
▁implemented	-10.6953
▁inbox	-10.6953
▁incident	-10.6953
▁inciude	-10.6953
▁increment	-10.6953
▁indicator	-10.6953
▁infection	-10.6953
▁inflatables	-10.6953
▁infotex	-10.6953
▁intuit	-10.6953
▁invalidate	-10.6953
▁iron	-10.6953
▁japan	-10.6953
▁jlshankster	-10.6953
▁jul	-10.6953
▁justin	-10.6953
▁karpenkov	-10.6953
▁keiser	-10.6953
▁kerry	-10.6953
▁kno	-10.6953
▁kong	-10.6953
▁laugh	-10.6953
▁layout	-10.6953
▁league	-10.6953
▁licensing	-10.6953
▁lift	-10.6953
▁lined	-10.6953
▁lipitor	-10.6953
▁locked	-10.6953
▁logon	-10.6953
▁longines	-10.6953
▁lopez	-10.6953
▁losing	-10.6953
▁maritta	-10.6953
▁marol	-10.6953
▁matrix	-10.6953
▁mbit	-10.6953
▁mdq	-10.6953
▁measured	-10.6953
▁mendoza	-10.6953
▁micro	-10.6953
▁midnight	-10.6953
▁mimi	-10.6953
▁minhplno	-10.6953
▁minister	-10.6953
▁miracle	-10.6953
▁mitcham	-10.6953
▁modification	-10.6953
▁modified	-10.6953
▁mogi	-10.6953
▁mom	-10.6953
▁monitoring	-10.6953
▁morrow	-10.6953
▁mortar	-10.6953
▁mullet	-10.6953
▁nahou	-10.6953
▁nearby	-10.6953
▁networking	-10.6953
▁ngpl	-10.6953
▁no	-10.6953
▁notebookplus	-10.6953
▁nowadays	-10.6953
▁nt	-10.6953
▁obviously	-10.6953
▁octane	-10.6953
▁oliver	-10.6953
▁omaha	-10.6953
▁ongoing	-10.6953
▁orig	-10.6953
▁ose	-10.6953
▁output	-10.6953
▁overflow	-10.6953
▁pacific	-10.6953
▁pad	-10.6953
▁paged	-10.6953
▁pair	-10.6953
▁panel	-10.6953
▁parallel	-10.6953
▁patent	-10.6953
▁paula	-10.6953
▁pcmcia	-10.6953
▁performed	-10.6953
▁permit	-10.6953
▁perry	-10.6953
▁personalized	-10.6953
▁philippe	-10.6953
▁phrase	-10.6953
▁piils	-10.6953
▁plane	-10.6953
▁pleus	-10.6953
▁pope	-10.6953
▁ppin	-10.6953
▁praise	-10.6953
▁principal	-10.6953
▁printing	-10.6953
▁proceeding	-10.6953
▁promptly	-10.6953
▁prov	-10.6953
▁pubiication	-10.6953
▁push	-10.6953
▁questioning	-10.6953
▁radar	-10.6953
▁rao	-10.6953
▁reas	-10.6953
▁recruiting	-10.6953
▁reiterate	-10.6953
▁rem	-10.6953
▁remained	-10.6953
▁remedy	-10.6953
▁residential	-10.6953
▁retrofit	-10.6953
▁rewriter	-10.6953
▁rider	-10.6953
▁rien	-10.6953
▁ronn	-10.6953
▁roof	-10.6953
▁roper	-10.6953
▁roy	-10.6953
▁sabra	-10.6953
▁sad	-10.6953
▁saf	-10.6953
▁salazar	-10.6953
▁saldana	-10.6953
▁schoolyard	-10.6953
▁science	-10.6953
▁scroll	-10.6953
▁scsi	-10.6953
▁seating	-10.6953
▁seltzer	-10.6953
▁served	-10.6953
▁shell	-10.6953
▁sheridan	-10.6953
▁shi	-10.6953
▁shrink	-10.6953
▁silent	-10.6953
▁slow	-10.6953
▁smile	-10.6953
▁softtabs	-10.6953
▁somebody	-10.6953
▁sorenson	-10.6953
▁spark	-10.6953
▁spirit	-10.6953
▁spoken	-10.6953
▁subsequent	-10.6953
▁subsequently	-10.6953
▁substance	-10.6953
▁succeed	-10.6953
▁suemaur	-10.6953
▁szajac	-10.6953
▁technician	-10.6953
▁telephony	-10.6953
▁tgc	-10.6953
▁tgp	-10.6953
▁thr	-10.6953
▁tick	-10.6953
▁timely	-10.6953
▁tks	-10.6953
▁tobacco	-10.6953
▁tor	-10.6953
▁touched	-10.6953
▁toy	-10.6953
▁tras	-10.6953
▁tremendous	-10.6953
▁trend	-10.6953
▁trigger	-10.6953
▁twice	-10.6953
▁uauthorize	-10.6953
▁ultimate	-10.6953
▁unauthorized	-10.6953
▁underway	-10.6953
▁undue	-10.6953
▁ural	-10.6953
▁uribe	-10.6953
▁varou	-10.6953
▁vendor	-10.6953
▁vic	-10.6953
▁visa	-10.6953
▁volatility	-10.6953
▁weapon	-10.6953
▁webcam	-10.6953
▁willie	-10.6953
▁winter	-10.6953
▁xenical	-10.6953
▁yates	-10.6953
▁0004	-10.8288
▁0100	-10.8288
▁014	-10.8288
▁037	-10.8288
▁0800	-10.8288
▁1062	-10.8288
▁10955	-10.8288
▁112	-10.8288
▁114	-10.8288
▁130	-10.8288
▁1300	-10.8288
▁144	-10.8288
▁1450	-10.8288
▁148381	-10.8288
▁1757978	-10.8288
▁176	-10.8288
▁183	-10.8288
▁187	-10.8288
▁2006	-10.8288
▁212	-10.8288
▁21500	-10.8288
▁225	-10.8288
▁258	-10.8288
▁2697	-10.8288
▁275	-10.8288
▁328	-10.8288
▁343421	-10.8288
▁35251	-10.8288
▁3949	-10.8288
▁409	-10.8288
▁416	-10.8288
▁464	-10.8288
▁480	-10.8288
▁483	-10.8288
▁518	-10.8288
▁528	-10.8288
▁5729	-10.8288
▁578	-10.8288
▁579	-10.8288
▁599	-10.8288
▁6202	-10.8288
▁637	-10.8288
▁641	-10.8288
▁6879	-10.8288
▁714	-10.8288
▁8000	-10.8288
▁841	-10.8288
▁903	-10.8288
▁9797	-10.8288
▁980070	-10.8288
▁9842	-10.8288
▁9860	-10.8288
▁989614	-10.8288
▁9941	-10.8288
▁abc	-10.8288
▁accrual	-10.8288
▁accumulated	-10.8288
▁actua	-10.8288
▁acyclovir	-10.8288
▁adopted	-10.8288
▁aiready	-10.8288
▁alamo	-10.8288
▁alfonso	-10.8288
▁alka	-10.8288
▁alliance	-10.8288
▁allocates	-10.8288
▁ally	-10.8288
▁anadarko	-10.8288
▁anglo	-10.8288
▁apap	-10.8288
▁apapl	-10.8288
▁apart	-10.8288
▁applicant	-10.8288
▁approximate	-10.8288
▁architecture	-10.8288
▁arena	-10.8288
▁arrived	-10.8288
▁arrives	-10.8288
▁as	-10.8288
▁ass	-10.8288
▁atr	-10.8288
▁attorney	-10.8288
▁awarded	-10.8288
▁awhile	-10.8288
▁bang	-10.8288
▁baron	-10.8288
▁bassinet	-10.8288
▁bayport	-10.8288
▁beard	-10.8288
▁becoming	-10.8288
▁beiieves	-10.8288
▁beneficial	-10.8288
▁bequest	-10.8288
▁betty	-10.8288
▁billy	-10.8288
▁blevins	-10.8288
▁blocky	-10.8288
▁bold	-10.8288
▁bonded	-10.8288
▁boom	-10.8288
▁born	-10.8288
▁boulevard	-10.8288
▁brazil	-10.8288
▁breach	-10.8288
▁breitling	-10.8288
▁broad	-10.8288
▁bulletin	-10.8288
▁bupropion	-10.8288
▁buspar	-10.8288
▁butalbital	-10.8288
▁calcagno	-10.8288
▁calorized	-10.8288
▁calvin	-10.8288
▁campus	-10.8288
▁cancer	-10.8288
▁candle	-10.8288
▁canvas	-10.8288
▁carisoprodol	-10.8288
▁catalog	-10.8288
▁catherine	-10.8288
▁cecilia	-10.8288
▁cellular	-10.8288
▁certainly	-10.8288
▁cfp	-10.8288
▁cgi	-10.8288
▁cheer	-10.8288
▁chyral	-10.8288
▁circulating	-10.8288
▁civilian	-10.8288
▁clal	-10.8288
▁clalls	-10.8288
▁cleanup	-10.8288
▁closer	-10.8288
▁closure	-10.8288
▁coc	-10.8288
▁cola	-10.8288
▁commercialization	-10.8288
▁completes	-10.8288
▁compliant	-10.8288
▁compliment	-10.8288
▁concord	-10.8288
▁conf	-10.8288
▁conservative	-10.8288
▁context	-10.8288
▁contrary	-10.8288
▁coordinated	-10.8288
▁cough	-10.8288
▁courtesy	-10.8288
▁crafted	-10.8288
▁craving	-10.8288
▁crew	-10.8288
▁crystal	-10.8288
▁ctr	-10.8288
▁cyclen	-10.8288
▁cyclobenzaprine	-10.8288
▁danger	-10.8288
▁deduct	-10.8288
▁deem	-10.8288
▁delainey	-10.8288
▁delma	-10.8288
▁demanding	-10.8288
▁dependent	-10.8288
▁determines	-10.8288
▁diedrich	-10.8288
▁diflucan	-10.8288
▁dimetapp	-10.8288
▁dinari	-10.8288
▁disposal	-10.8288
▁dispute	-10.8288
▁dividend	-10.8288
▁dobbin	-10.8288
▁downloaded	-10.8288
▁drilled	-10.8288
▁dvn	-10.8288
▁eastern	-10.8288
▁econnect	-10.8288
▁edgar	-10.8288
▁effectiveness	-10.8288
▁efficiency	-10.8288
▁efficiently	-10.8288
▁ein	-10.8288
▁ejrhxw	-10.8288
▁elpaso	-10.8288
▁elwood	-10.8288
▁emv	-10.8288
▁enjoyed	-10.8288
▁enroll	-10.8288
▁enrollment	-10.8288
▁esgic	-10.8288
▁essentially	-10.8288
▁ethane	-10.8288
▁evil	-10.8288
▁evra	-10.8288
▁examine	-10.8288
▁exciusive	-10.8288
▁expecting	-10.8288
▁expedited	-10.8288
▁exposure	-10.8288
▁factory	-10.8288
▁falbaum	-10.8288
▁famvir	-10.8288
▁favorabie	-10.8288
▁fertility	-10.8288
▁fifteen	-10.8288
▁flexeril	-10.8288
▁flextra	-10.8288
▁floated	-10.8288
▁footlocker	-10.8288
▁fraud	-10.8288
▁fuck	-10.8288
▁funny	-10.8288
▁gambling	-10.8288
▁generates	-10.8288
▁ger	-10.8288
▁ghz	-10.8288
▁giobal	-10.8288
▁glory	-10.8288
▁goodwill	-10.8288
▁gosnell	-10.8288
▁grade	-10.8288
▁grass	-10.8288
▁greenbriar	-10.8288
▁greengrocer	-10.8288
▁guaranty	-10.8288
▁habe	-10.8288
▁hacking	-10.8288
▁hampden	-10.8288
▁handset	-10.8288
▁harm	-10.8288
▁harmon	-10.8288
▁hawk	-10.8288
▁hbcamp	-10.8288
▁hcl	-10.8288
▁headquartered	-10.8288
▁healing	-10.8288
▁helpdesk	-10.8288
▁heuer	-10.8288
▁hewitt	-10.8288
▁hodges	-10.8288
▁hoff	-10.8288
▁hollomon	-10.8288
▁honest	-10.8288
▁hong	-10.8288
▁hoping	-10.8288
▁hormone	-10.8288
▁horse	-10.8288
▁hottest	-10.8288
▁household	-10.8288
▁hunaid	-10.8288
▁identical	-10.8288
▁imts	-10.8288
▁inadvertently	-10.8288
▁inclusive	-10.8288
▁inexpensive	-10.8288
▁influence	-10.8288
▁inkjet	-10.8288
▁instrument	-10.8288
▁int	-10.8288
▁intelligent	-10.8288
▁intends	-10.8288
▁internally	-10.8288
▁interprovincial	-10.8288
▁ionamin	-10.8288
▁ist	-10.8288
▁italian	-10.8288
▁ivoire	-10.8288
▁iwc	-10.8288
▁jaeger	-10.8288
▁jaime	-10.8288
▁jamie	-10.8288
▁jenuwine	-10.8288
▁jesse	-10.8288
▁joke	-10.8288
▁jonathan	-10.8288
▁junior	-10.8288
▁kansa	-10.8288
▁kellie	-10.8288
▁khan	-10.8288
▁killam	-10.8288
▁kit	-10.8288
▁kponton	-10.8288
▁labeled	-10.8288
▁lagos	-10.8288
▁lakho	-10.8288
▁lambert	-10.8288
▁larrissa	-10.8288
▁laurie	-10.8288
▁lawrence	-10.8288
▁learned	-10.8288
▁legally	-10.8288
▁leverage	-10.8288
▁lng	-10.8288
▁lofton	-10.8288
▁lori	-10.8288
▁lrc	-10.8288
▁mac	-10.8288
▁maiiings	-10.8288
▁malcolm	-10.8288
▁marcus	-10.8288
▁marked	-10.8288
▁mason	-10.8288
▁maximize	-10.8288
▁maynard	-10.8288
▁medz	-10.8288
▁melba	-10.8288
▁ment	-10.8288
▁merchandise	-10.8288
▁merit	-10.8288
▁merry	-10.8288
▁mess	-10.8288
▁metabolic	-10.8288
▁miliennium	-10.8288
▁mini	-10.8288
▁mirrior	-10.8288
▁mmsr	-10.8288
▁moon	-10.8288
▁mpeg	-10.8288
▁multilingual	-10.8288
▁multimedia	-10.8288
▁myorder	-10.8288
▁mystery	-10.8288
▁naked	-10.8288
▁netscape	-10.8288
▁ninety	-10.8288
▁noting	-10.8288
▁nowlan	-10.8288
▁obtaining	-10.8288
▁occurred	-10.8288
▁ontario	-10.8288
▁opposed	-10.8288
▁orchard	-10.8288
▁otid	-10.8288
▁ounce	-10.8288
▁overview	-10.8288
▁par	-10.8288
▁particularly	-10.8288
▁pen	-10.8288
▁pennzenergy	-10.8288
▁personally	-10.8288
▁perspective	-10.8288
▁pete	-10.8288
▁pioneer	-10.8288
▁plz	-10.8288
▁pmas	-10.8288
▁poised	-10.8288
▁populate	-10.8288
▁powered	-10.8288
▁prentice	-10.8288
▁preserve	-10.8288
▁primarily	-10.8288
▁promoted	-10.8288
▁prospective	-10.8288
▁proxy	-10.8288
▁psa	-10.8288
▁pubiic	-10.8288
▁publicly	-10.8288
▁publishing	-10.8288
▁pursue	-10.8288
▁qualifying	-10.8288
▁queen	-10.8288
▁quickenloans	-10.8288
▁receivables	-10.8288
▁receives	-10.8288
▁recieve	-10.8288
▁refill	-10.8288
▁regan	-10.8288
▁replying	-10.8288
▁representation	-10.8288
▁representing	-10.8288
▁resident	-10.8288
▁respectively	-10.8288
▁restaurant	-10.8288
▁restore	-10.8288
▁restructuring	-10.8288
▁retirement	-10.8288
▁retreat	-10.8288
▁retrieve	-10.8288
▁ribbon	-10.8288
▁riverside	-10.8288
▁route	-10.8288
▁saave	-10.8288
▁safely	-10.8288
▁sailing	-10.8288
▁saldivar	-10.8288
▁samsung	-10.8288
▁saved	-10.8288
▁scanner	-10.8288
▁screw	-10.8288
▁selecting	-10.8288
▁sensitive	-10.8288
▁separation	-10.8288
▁sexy	-10.8288
▁shahnaz	-10.8288
▁shatalmic	-10.8288
▁shawn	-10.8288
▁shelley	-10.8288
▁shelton	-10.8288
▁shortcut	-10.8288
▁silence	-10.8288
▁skelaxin	-10.8288
▁society	-10.8288
▁som	-10.8288
▁specify	-10.8288
▁srge	-10.8288
▁stability	-10.8288
▁steady	-10.8288
▁str	-10.8288
▁structured	-10.8288
▁submitting	-10.8288
▁superfast	-10.8288
▁supporting	-10.8288
▁suppresses	-10.8288
▁sur	-10.8288
▁surface	-10.8288
▁survivor	-10.8288
▁suspect	-10.8288
▁switzerland	-10.8288
▁targeting	-10.8288
▁taught	-10.8288
▁teamleadership	-10.8288
▁teeth	-10.8288
▁tenuate	-10.8288
▁tex	-10.8288
▁theriot	-10.8288
▁tony	-10.8288
▁tough	-10.8288
▁trace	-10.8288
▁traditional	-10.8288
▁trail	-10.8288
▁train	-10.8288
▁transact	-10.8288
▁triphasil	-10.8288
▁troop	-10.8288
▁trusted	-10.8288
▁tulsa	-10.8288
▁turnkey	-10.8288
▁ume	-10.8288
▁unscrupulous	-10.8288
▁upset	-10.8288
▁useful	-10.8288
▁username	-10.8288
▁vallum	-10.8288
▁valtrex	-10.8288
▁vancouver	-10.8288
▁vaniqa	-10.8288
▁vehicle	-10.8288
▁versen	-10.8288
▁village	-10.8288
▁vinyl	-10.8288
▁vir	-10.8288
▁volumetric	-10.8288
▁wanting	-10.8288
▁wardle	-10.8288
▁waskom	-10.8288
▁wassup	-10.8288
▁watching	-10.8288
▁wedelmusic	-10.8288
▁wellbutrin	-10.8288
▁westex	-10.8288
▁westminster	-10.8288
▁witer	-10.8288
▁wombat	-10.8288
▁worid	-10.8288
▁worker	-10.8288
▁wouid	-10.8288
▁wow	-10.8288
▁wowgao	-10.8288
▁writer	-10.8288
▁wrongfully	-10.8288
▁wrote	-10.8288
▁xan	-10.8288
▁yankee	-10.8288
▁yellow	-10.8288
▁younger	-10.8288
▁zanaflex	-10.8288
▁zebutal	-10.8288
▁008	-10.9829
▁022	-10.9829
▁028	-10.9829
▁045	-10.9829
▁0900	-10.9829
▁0986563	-10.9829
▁106	-10.9829
▁1105	-10.9829
▁116	-10.9829
▁1201	-10.9829
▁126	-10.9829
▁133259	-10.9829
▁1333	-10.9829
▁1411	-10.9829
▁1431	-10.9829
▁148	-10.9829
▁15000	-10.9829
▁151	-10.9829
▁219	-10.9829
▁226	-10.9829
▁242	-10.9829
▁24636	-10.9829
▁2486256	-10.9829
▁268	-10.9829
▁27049	-10.9829
▁2747	-10.9829
▁297	-10.9829
▁314	-10.9829
▁3159	-10.9829
▁320	-10.9829
▁321	-10.9829
▁335	-10.9829
▁3405	-10.9829
▁348	-10.9829
▁3486	-10.9829
▁354	-10.9829
▁35971	-10.9829
▁374	-10.9829
▁389	-10.9829
▁394	-10.9829
▁398	-10.9829
▁399791	-10.9829
▁4045	-10.9829
▁406	-10.9829
▁407	-10.9829
▁419	-10.9829
▁424	-10.9829
▁428	-10.9829
▁4298	-10.9829
▁4353	-10.9829
▁445	-10.9829
▁484	-10.9829
▁529	-10.9829
▁536	-10.9829
▁540	-10.9829
▁547	-10.9829
▁548	-10.9829
▁556	-10.9829
▁560	-10.9829
▁595	-10.9829
▁6040	-10.9829
▁6279	-10.9829
▁6388	-10.9829
▁639	-10.9829
▁6500	-10.9829
▁6614	-10.9829
▁671	-10.9829
▁6780	-10.9829
▁693	-10.9829
▁695	-10.9829
▁70120	-10.9829
▁703	-10.9829
▁75201	-10.9829
▁752482	-10.9829
▁768	-10.9829
▁770	-10.9829
▁775	-10.9829
▁783	-10.9829
▁800000	-10.9829
▁80234	-10.9829
▁803	-10.9829
▁809	-10.9829
▁819594	-10.9829
▁831	-10.9829
▁860	-10.9829
▁8721	-10.9829
▁874	-10.9829
▁8740	-10.9829
▁895	-10.9829
▁90069	-10.9829
▁923	-10.9829
▁9272	-10.9829
▁96029146	-10.9829
▁9603	-10.9829
▁9656	-10.9829
▁979	-10.9829
▁9794	-10.9829
▁9814	-10.9829
▁981428	-10.9829
▁989634	-10.9829
▁989842	-10.9829
▁abacha	-10.9829
▁abacus	-10.9829
▁abel	-10.9829
▁abidjan	-10.9829
▁accepting	-10.9829
▁accessed	-10.9829
▁accomplished	-10.9829
▁acf	-10.9829
▁acknowledge	-10.9829
▁ad	-10.9829
▁adios	-10.9829
▁adoption	-10.9829
▁agate	-10.9829
▁agrees	-10.9829
▁airplane	-10.9829
▁aiways	-10.9829
▁alive	-10.9829
▁allocatable	-10.9829
▁allotted	-10.9829
▁alumnus	-10.9829
▁alvin	-10.9829
▁ambient	-10.9829
▁amblen	-10.9829
▁angel	-10.9829
▁antenna	-10.9829
▁antonio	-10.9829
▁appropriately	-10.9829
▁apps	-10.9829
▁aquarius	-10.9829
▁argue	-10.9829
▁arrival	-10.9829
▁artwork	-10.9829
▁aspermont	-10.9829
▁assessed	-10.9829
▁assisting	-10.9829
▁astros	-10.9829
▁ate	-10.9829
▁atmic	-10.9829
▁attract	-10.9829
▁attraction	-10.9829
▁auf	-10.9829
▁backlog	-10.9829
▁badly	-10.9829
▁ballard	-10.9829
▁bandwidth	-10.9829
▁basket	-10.9829
▁bcc	-10.9829
▁beale	-10.9829
▁behavior	-10.9829
▁beiieve	-10.9829
▁believed	-10.9829
▁belongs	-10.9829
▁benjamin	-10.9829
▁berryman	-10.9829
▁beware	-10.9829
▁biank	-10.9829
▁biilion	-10.9829
▁binder	-10.9829
▁bingoline	-10.9829
▁bio	-10.9829
▁bioelectronics	-10.9829
▁birth	-10.9829
▁blackout	-10.9829
▁bluedolphin	-10.9829
▁blustery	-10.9829
▁bmw	-10.9829
▁bobbie	-10.9829
▁bow	-10.9829
▁brandon	-10.9829
▁brazoria	-10.9829
▁breakfast	-10.9829
▁breastplate	-10.9829
▁breslau	-10.9829
▁bridgette	-10.9829
▁brings	-10.9829
▁british	-10.9829
▁brock	-10.9829
▁broken	-10.9829
▁burke	-10.9829
▁busby	-10.9829
▁calculate	-10.9829
▁calculating	-10.9829
▁calvert	-10.9829
▁cam	-10.9829
▁cameraman	-10.9829
▁camille	-10.9829
▁canm	-10.9829
▁canus	-10.9829
▁carbaugh	-10.9829
▁careful	-10.9829
▁carton	-10.9829
▁cast	-10.9829
▁casual	-10.9829
▁casualty	-10.9829
▁caution	-10.9829
▁cdp	-10.9829
▁centerfont	-10.9829
▁certification	-10.9829
▁chalcedony	-10.9829
▁channelview	-10.9829
▁charger	-10.9829
▁cheaper	-10.9829
▁cherub	-10.9829
▁chfc	-10.9829
▁chocolate	-10.9829
▁chopard	-10.9829
▁chosen	-10.9829
▁christ	-10.9829
▁chromium	-10.9829
▁chuckle	-10.9829
▁ciilck	-10.9829
▁cipco	-10.9829
▁clalis	-10.9829
▁cli	-10.9829
▁clu	-10.9829
▁cmltrochta	-10.9829
▁cocavessis	-10.9829
▁coconutmodem	-10.9829
▁cogen	-10.9829
▁cognate	-10.9829
▁colleague	-10.9829
▁collecting	-10.9829
▁command	-10.9829
▁commences	-10.9829
▁communicated	-10.9829
▁communicating	-10.9829
▁comparing	-10.9829
▁compression	-10.9829
▁compromised	-10.9829
▁conquer	-10.9829
▁consist	-10.9829
▁consolidated	-10.9829
▁consolidation	-10.9829
▁construction	-10.9829
▁controversial	-10.9829
▁coordinating	-10.9829
▁coordination	-10.9829
▁copying	-10.9829
▁correspond	-10.9829
▁counselor	-10.9829
▁counterman	-10.9829
▁couvillon	-10.9829
▁covering	-10.9829
▁cow	-10.9829
▁cowtrap	-10.9829
▁cps	-10.9829
▁cream	-10.9829
▁creation	-10.9829
▁crown	-10.9829
▁cumulative	-10.9829
▁cure	-10.9829
▁curtailment	-10.9829
▁custom	-10.9829
▁cyber	-10.9829
▁cynergy	-10.9829
▁dans	-10.9829
▁davidson	-10.9829
▁dean	-10.9829
▁deboisblanc	-10.9829
▁deceased	-10.9829
▁decertify	-10.9829
▁deducted	-10.9829
▁depend	-10.9829
▁depression	-10.9829
▁deregulated	-10.9829
▁determination	-10.9829
▁deveioped	-10.9829
▁deveioping	-10.9829
▁dfs	-10.9829
▁dhttp	-10.9829
▁din	-10.9829
▁disaster	-10.9829
▁disc	-10.9829
▁discounted	-10.9829
▁discreetly	-10.9829
▁disorder	-10.9829
▁disposition	-10.9829
▁dobb	-10.9829
▁dominant	-10.9829
▁doodle	-10.9829
▁dot	-10.9829
▁dragica	-10.9829
▁dragon	-10.9829
▁dsco	-10.9829
▁dual	-10.9829
▁dyersdale	-10.9829
▁ear	-10.9829
▁earn	-10.9829
▁effloresce	-10.9829
▁egal	-10.9829
▁egypt	-10.9829
▁electronically	-10.9829
▁elena	-10.9829
▁embarrassment	-10.9829
▁emphasis	-10.9829
▁enables	-10.9829
▁enabling	-10.9829
▁encouraged	-10.9829
▁encryption	-10.9829
▁enforceable	-10.9829
▁enjoying	-10.9829
▁enlarge	-10.9829
▁entrance	-10.9829
▁establishment	-10.9829
▁estoppel	-10.9829
▁evans	-10.9829
▁everyday	-10.9829
▁excuria	-10.9829
▁excuse	-10.9829
▁exec	-10.9829
▁executing	-10.9829
▁explaining	-10.9829
▁explicit	-10.9829
▁explore	-10.9829
▁exponential	-10.9829
▁extender	-10.9829
▁fabulous	-10.9829
▁factua	-10.9829
▁fairway	-10.9829
▁fallout	-10.9829
▁fantastic	-10.9829
▁faq	-10.9829
▁fence	-10.9829
▁ferry	-10.9829
▁fffont	-10.9829
▁fidgeting	-10.9829
▁fieid	-10.9829
▁financially	-10.9829
▁fingertip	-10.9829
▁fish	-10.9829
▁fitness	-10.9829
▁flashed	-10.9829
▁fluctuation	-10.9829
▁formal	-10.9829
▁forum	-10.9829
▁fossil	-10.9829
▁founder	-10.9829
▁france	-10.9829
▁freehand	-10.9829
▁freeware	-10.9829
▁freeze	-10.9829
▁functional	-10.9829
▁funeral	-10.9829
▁g	-10.9829
▁garrett	-10.9829
▁gasper	-10.9829
▁gayle	-10.9829
▁gbl	-10.9829
▁gel	-10.9829
▁gentle	-10.9829
▁georgeanne	-10.9829
▁giant	-10.9829
▁girlfriend	-10.9829
▁globe	-10.9829
▁goodbye	-10.9829
▁gpa	-10.9829
▁grace	-10.9829
▁gradually	-10.9829
▁grease	-10.9829
▁grecian	-10.9829
▁grown	-10.9829
▁guaranteee	-10.9829
▁guard	-10.9829
▁hacker	-10.9829
▁hades	-10.9829
▁hampshire	-10.9829
▁handley	-10.9829
▁happens	-10.9829
▁hare	-10.9829
▁harold	-10.9829
▁haul	-10.9829
▁haynes	-10.9829
▁hea	-10.9829
▁headset	-10.9829
▁heat	-10.9829
▁heatherlock	-10.9829
▁hedge	-10.9829
▁heller	-10.9829
▁herbal	-10.9829
▁hereby	-10.9829
▁herman	-10.9829
▁highiy	-10.9829
▁hint	-10.9829
▁holder	-10.9829
▁holland	-10.9829
▁homeland	-10.9829
▁homeownernews	-10.9829
▁homepage	-10.9829
▁horny	-10.9829
▁hubco	-10.9829
▁iaagra	-10.9829
▁iagra	-10.9829
▁ibc	-10.9829
▁id	-10.9829
▁ifont	-10.9829
▁igts	-10.9829
▁immigrant	-10.9829
▁implementing	-10.9829
▁import	-10.9829
▁imported	-10.9829
▁improving	-10.9829
▁incorporate	-10.9829
▁incorporated	-10.9829
▁incur	-10.9829
▁indication	-10.9829
▁instrumental	-10.9829
▁intention	-10.9829
▁interconnecting	-10.9829
▁intercourse	-10.9829
▁invited	-10.9829
▁ipcy	-10.9829
▁itst	-10.9829
▁ium	-10.9829
▁jared	-10.9829
▁jen	-10.9829
▁jeremy	-10.9829
▁jester	-10.9829
▁jobsonline	-10.9829
▁karl	-10.9829
▁kasemervisz	-10.9829
▁kent	-10.9829
▁laallen	-10.9829
▁lakeland	-10.9829
▁lal	-10.9829
▁lately	-10.9829
▁lavorato	-10.9829
▁leaf	-10.9829
▁lender	-10.9829
▁lending	-10.9829
▁liable	-10.9829
▁lifestyle	-10.9829
▁linking	-10.9829
▁loaded	-10.9829
▁lobby	-10.9829
▁logged	-10.9829
▁logic	-10.9829
▁lomax	-10.9829
▁lotteria	-10.9829
▁lotus	-10.9829
▁lou	-10.9829
▁louse	-10.9829
▁loved	-10.9829
▁lozano	-10.9829
▁lutz	-10.9829
▁maake	-10.9829
▁mal	-10.9829
▁managed	-10.9829
▁manipulation	-10.9829
▁marathon	-10.9829
▁marie	-10.9829
▁marilu	-10.9829
▁matagorda	-10.9829
▁materialiy	-10.9829
▁mature	-10.9829
▁mbps	-10.9829
▁mccabe	-10.9829
▁mcdermott	-10.9829
▁mclarney	-10.9829
▁mcmichael	-10.9829
▁mcneill	-10.9829
▁measuring	-10.9829
▁meers	-10.9829
▁melethil	-10.9829
▁mental	-10.9829
▁mhz	-10.9829
▁middleware	-10.9829
▁minded	-10.9829
▁misieading	-10.9829
▁mmbtud	-10.9829
▁mobipocket	-10.9829
▁mode	-10.9829
▁modern	-10.9829
▁module	-10.9829
▁mohammed	-10.9829
▁moval	-10.9829
▁municipal	-10.9829
▁musicnetwork	-10.9829
▁naturally	-10.9829
▁neat	-10.9829
▁newland	-10.9829
▁ngi	-10.9829
▁nichols	-10.9829
▁nickel	-10.9829
▁niestrath	-10.9829
▁nightly	-10.9829
▁nomso	-10.9829
▁notation	-10.9829
▁numbered	-10.9829
▁objection	-10.9829
▁obvious	-10.9829
▁occasion	-10.9829
▁ong	-10.9829
▁opened	-10.9829
▁opposite	-10.9829
▁optinrealbig	-10.9829
▁optional	-10.9829
▁orange	-10.9829
▁ore	-10.9829
▁orgasm	-10.9829
▁oriented	-10.9829
▁overdeliver	-10.9829
▁overhead	-10.9829
▁owa	-10.9829
▁owed	-10.9829
▁packed	-10.9829
▁painter	-10.9829
▁panerai	-10.9829
▁panther	-10.9829
▁paradise	-10.9829
▁participating	-10.9829
▁partid	-10.9829
▁pasadena	-10.9829
▁patek	-10.9829
▁payout	-10.9829
▁paz	-10.9829
▁pbx	-10.9829
▁pdf	-10.9829
▁pdn	-10.9829
▁peer	-10.9829
▁penetration	-10.9829
▁pentagon	-10.9829
▁perfectly	-10.9829
▁permissible	-10.9829
▁pertinent	-10.9829
▁pham	-10.9829
▁philip	-10.9829
▁phoenix	-10.9829
▁pigged	-10.9829
▁pilis	-10.9829
▁piracy	-10.9829
▁pitre	-10.9829
▁placing	-10.9829
▁planet	-10.9829
▁plaxo	-10.9829
▁playoff	-10.9829
▁plc	-10.9829
▁pleo	-10.9829
▁ponderosa	-10.9829
▁posse	-10.9829
▁postpaid	-10.9829
▁powerpoint	-10.9829
▁precaution	-10.9829
▁precautionary	-10.9829
▁precise	-10.9829
▁presc	-10.9829
▁principle	-10.9829
▁probusiness	-10.9829
▁proceeds	-10.9829
▁processor	-10.9829
▁profiie	-10.9829
▁promotional	-10.9829
▁proof	-10.9829
▁proposition	-10.9829
▁prorate	-10.9829
▁proved	-10.9829
▁province	-10.9829
▁psalm	-10.9829
▁publish	-10.9829
▁purch	-10.9829
▁purge	-10.9829
▁pursuant	-10.9829
▁qtr	-10.9829
▁radioshack	-10.9829
▁randy	-10.9829
▁raw	-10.9829
▁realized	-10.9829
▁rear	-10.9829
▁reasonable	-10.9829
▁rec	-10.9829
▁recall	-10.9829
▁receivable	-10.9829
▁recherche	-10.9829
▁recognized	-10.9829
▁recover	-10.9829
▁referral	-10.9829
▁referred	-10.9829
▁regret	-10.9829
▁reieases	-10.9829
▁relate	-10.9829
▁rely	-10.9829
▁remotely	-10.9829
▁renegotiated	-10.9829
▁researched	-10.9829
▁resort	-10.9829
▁responded	-10.9829
▁resulted	-10.9829
▁returning	-10.9829
▁reversed	-10.9829
▁rgsa	-10.9829
▁rig	-10.9829
▁rio	-10.9829
▁rohm	-10.9829
▁rollout	-10.9829
▁routine	-10.9829
▁rsweb	-10.9829
▁rtu	-10.9829
▁sandoval	-10.9829
▁sandra	-10.9829
▁scale	-10.9829
▁seadrift	-10.9829
▁seib	-10.9829
▁semen	-10.9829
▁sequence	-10.9829
▁serving	-10.9829
▁sharp	-10.9829
▁shimek	-10.9829
▁shining	-10.9829
▁shlpped	-10.9829
▁shoe	-10.9829
▁shoulder	-10.9829
▁shrinkage	-10.9829
▁shy	-10.9829
▁sing	-10.9829
▁singapore	-10.9829
▁sinus	-10.9829
▁skydive	-10.9829
▁slide	-10.9829
▁slip	-10.9829
▁slut	-10.9829
▁smallcap	-10.9829
▁smaller	-10.9829
▁smoked	-10.9829
▁somewhat	-10.9829
▁specuiative	-10.9829
▁stamen	-10.9829
▁stamp	-10.9829
▁stick	-10.9829
▁stoc	-10.9829
▁stomach	-10.9829
▁strap	-10.9829
▁stratton	-10.9829
▁strict	-10.9829
▁strip	-10.9829
▁strive	-10.9829
▁stronger	-10.9829
▁sub	-10.9829
▁subcommittee	-10.9829
▁sudden	-10.9829
▁suit	-10.9829
▁supplied	-10.9829
▁teacher	-10.9829
▁teamlead	-10.9829
▁telling	-10.9829
▁temperature	-10.9829
▁tenn	-10.9829
▁tennis	-10.9829
▁testimonial	-10.9829
▁thereby	-10.9829
▁thicket	-10.9829
▁thou	-10.9829
▁thresa	-10.9829
▁ticker	-10.9829
▁timothy	-10.9829
▁tion	-10.9829
▁toolbar	-10.9829
▁tourist	-10.9829
▁transacted	-10.9829
▁transcription	-10.9829
▁travis	-10.9829
▁tudor	-10.9829
▁tunnel	-10.9829
▁typically	-10.9829
▁unix	-10.9829
▁unmetered	-10.9829
▁unwanted	-10.9829
▁uvre	-10.9829
▁validate	-10.9829
▁vanessa	-10.9829
▁vast	-10.9829
▁vernon	-10.9829
▁veteran	-10.9829
▁viagr	-10.9829
▁viewed	-10.9829
▁violence	-10.9829
▁virgin	-10.9829
▁visio	-10.9829
▁waco	-10.9829
▁wakey	-10.9829
▁walking	-10.9829
▁wasting	-10.9829
▁wave	-10.9829
▁wear	-10.9829
▁wheeler	-10.9829
▁whoever	-10.9829
▁wholly	-10.9829
▁widely	-10.9829
▁wiggins	-10.9829
▁wise	-10.9829
▁wizard	-10.9829
▁wlndows	-10.9829
▁woodworking	-10.9829
▁wound	-10.9829
▁wrinkle	-10.9829
▁xms	-10.9829
▁xpress	-10.9829
▁yeah	-10.9829
▁zealand	-10.9829
▁zimbabwe	-10.9829
▁zinc	-10.9829
▁000099	-11.1653
▁009	-11.1653
▁0300	-11.1653
▁034	-11.1653
▁035	-11.1653
▁0375	-11.1653
▁040	-11.1653
▁0400	-11.1653
▁0491	-11.1653
▁1100	-11.1653
▁114096	-11.1653
▁125822	-11.1653
▁127	-11.1653
▁133	-11.1653
▁134	-11.1653
▁1384	-11.1653
▁141	-11.1653
▁147	-11.1653
▁1512	-11.1653
▁151669	-11.1653
▁1524	-11.1653
▁1530	-11.1653
▁154	-11.1653
▁1558	-11.1653
▁1591	-11.1653
▁1671	-11.1653
▁1700	-11.1653
▁171	-11.1653
▁172	-11.1653
▁1746918	-11.1653
▁17611	-11.1653
▁17817331	-11.1653
▁190	-11.1653
▁19436	-11.1653
▁198	-11.1653
▁211	-11.1653
▁21424229	-11.1653
▁222	-11.1653
▁224	-11.1653
▁229758	-11.1653
▁2300	-11.1653
▁233	-11.1653
▁235670	-11.1653
▁237	-11.1653
▁255	-11.1653
▁284	-11.1653
▁2848	-11.1653
▁286	-11.1653
▁30320418	-11.1653
▁3211	-11.1653
▁3213	-11.1653
▁324	-11.1653
▁3274	-11.1653
▁3296	-11.1653
▁337	-11.1653
▁339693	-11.1653
▁352	-11.1653
▁35656	-11.1653
▁35999	-11.1653
▁363514	-11.1653
▁367	-11.1653
▁377169	-11.1653
▁378904	-11.1653
▁3810	-11.1653
▁385	-11.1653
▁3910	-11.1653
▁39173	-11.1653
▁395	-11.1653
▁397957	-11.1653
▁415	-11.1653
▁417	-11.1653
▁420	-11.1653
▁422516	-11.1653
▁4357	-11.1653
▁449243	-11.1653
▁45000	-11.1653
▁461	-11.1653
▁465490	-11.1653
▁473	-11.1653
▁4777	-11.1653
▁48152	-11.1653
▁5064	-11.1653
▁5095	-11.1653
▁511	-11.1653
▁5134	-11.1653
▁517	-11.1653
▁521	-11.1653
▁5224	-11.1653
▁5228	-11.1653
▁526	-11.1653
▁529159	-11.1653
▁531	-11.1653
▁5333	-11.1653
▁565	-11.1653
▁5746	-11.1653
▁5843	-11.1653
▁587	-11.1653
▁598	-11.1653
▁5999	-11.1653
▁6155	-11.1653
▁617	-11.1653
▁620	-11.1653
▁636	-11.1653
▁656	-11.1653
▁6575	-11.1653
▁6599	-11.1653
▁6827	-11.1653
▁691	-11.1653
▁70550	-11.1653
▁7106	-11.1653
▁718	-11.1653
▁721	-11.1653
▁74101	-11.1653
▁745	-11.1653
▁746	-11.1653
▁7480	-11.1653
▁759	-11.1653
▁767	-11.1653
▁769	-11.1653
▁77090	-11.1653
▁798	-11.1653
▁812	-11.1653
▁8125	-11.1653
▁818	-11.1653
▁820	-11.1653
▁822	-11.1653
▁8636	-11.1653
▁864	-11.1653
▁870	-11.1653
▁871	-11.1653
▁871172	-11.1653
▁8875	-11.1653
▁901	-11.1653
▁909	-11.1653
▁912	-11.1653
▁9229	-11.1653
▁930	-11.1653
▁934	-11.1653
▁9401	-11.1653
▁955	-11.1653
▁9628	-11.1653
▁9638	-11.1653
▁9662	-11.1653
▁972	-11.1653
▁980074	-11.1653
▁9835	-11.1653
▁9845	-11.1653
▁9868	-11.1653
▁9900	-11.1653
▁9961	-11.1653
▁abazis	-11.1653
▁abdul	-11.1653
▁aboard	-11.1653
▁abroad	-11.1653
▁accumulation	-11.1653
▁accurately	-11.1653
▁achievement	-11.1653
▁acquires	-11.1653
▁actipatch	-11.1653
▁actively	-11.1653
▁adequate	-11.1653
▁adjustable	-11.1653
▁adsl	-11.1653
▁aftermath	-11.1653
▁aggie	-11.1653
▁agmt	-11.1653
▁agricultural	-11.1653
▁agriculture	-11.1653
▁airmass	-11.1653
▁airport	-11.1653
▁ajello	-11.1653
▁aka	-11.1653
▁akin	-11.1653
▁alarm	-11.1653
▁alaska	-11.1653
▁alcoa	-11.1653
▁alderman	-11.1653
▁allan	-11.1653
▁alles	-11.1653
▁aloud	-11.1653
▁althaus	-11.1653
▁amen	-11.1653
▁amherst	-11.1653
▁angelina	-11.1653
▁animal	-11.1653
▁annulus	-11.1653
▁anp	-11.1653
▁antoine	-11.1653
▁apex	-11.1653
▁applies	-11.1653
▁appoint	-11.1653
▁aqua	-11.1653
▁argest	-11.1653
▁argus	-11.1653
▁arranged	-11.1653
▁arty	-11.1653
▁assessment	-11.1653
▁ast	-11.1653
▁asylum	-11.1653
▁ata	-11.1653
▁atlanta	-11.1653
▁att	-11.1653
▁attempting	-11.1653
▁attended	-11.1653
▁attitude	-11.1653
▁attn	-11.1653
▁auburndale	-11.1653
▁australian	-11.1653
▁autonoms	-11.1653
▁avaiiabie	-11.1653
▁avec	-11.1653
▁avenue	-11.1653
▁avoidance	-11.1653
▁avoided	-11.1653
▁awaiting	-11.1653
▁axcp	-11.1653
▁axle	-11.1653
▁aye	-11.1653
▁babysit	-11.1653
▁bachelor	-11.1653
▁backwards	-11.1653
▁bakery	-11.1653
▁bammelyoungfamilies	-11.1653
▁bankrupt	-11.1653
▁bargain	-11.1653
▁barkowsky	-11.1653
▁barrel	-11.1653
▁basically	-11.1653
▁battle	-11.1653
▁beau	-11.1653
▁bedroom	-11.1653
▁bel	-11.1653
▁berke	-11.1653
▁bertram	-11.1653
▁bilinear	-11.1653
▁binghamton	-11.1653
▁blackjack	-11.1653
▁blancpain	-11.1653
▁blest	-11.1653
▁blog	-11.1653
▁bluish	-11.1653
▁boca	-11.1653
▁bolt	-11.1653
▁bother	-11.1653
▁boudar	-11.1653
▁boule	-11.1653
▁bowman	-11.1653
▁boyce	-11.1653
▁brady	-11.1653
▁bravado	-11.1653
▁brave	-11.1653
▁breguet	-11.1653
▁brewer	-11.1653
▁brfont	-11.1653
▁bridgeback	-11.1653
▁bridged	-11.1653
▁bright	-11.1653
▁brochure	-11.1653
▁buchanan	-11.1653
▁bucket	-11.1653
▁bugle	-11.1653
▁buhler	-11.1653
▁builder	-11.1653
▁bull	-11.1653
▁bump	-11.1653
▁bundled	-11.1653
▁bvlgari	-11.1653
▁byronellis	-11.1653
▁cadenza	-11.1653
▁calamity	-11.1653
▁calculated	-11.1653
▁cambric	-11.1653
▁camcorder	-11.1653
▁capitol	-11.1653
▁captaincy	-11.1653
▁carouse	-11.1653
▁carrizo	-11.1653
▁cartilage	-11.1653
▁casework	-11.1653
▁catastrophic	-11.1653
▁cathy	-11.1653
▁ccgm	-11.1653
▁cease	-11.1653
▁census	-11.1653
▁chanel	-11.1653
▁chaplaincy	-11.1653
▁characteristic	-11.1653
▁che	-11.1653
▁cheshire	-11.1653
▁chest	-11.1653
▁chip	-11.1653
▁chronic	-11.1653
▁cialiis	-11.1653
▁cialls	-11.1653
▁civil	-11.1653
▁clark	-11.1653
▁classic	-11.1653
▁clickathomepilot	-11.1653
▁clinic	-11.1653
▁clint	-11.1653
▁clinton	-11.1653
▁cloak	-11.1653
▁cloud	-11.1653
▁clue	-11.1653
▁cob	-11.1653
▁coconut	-11.1653
▁codin	-11.1653
▁colander	-11.1653
▁colossus	-11.1653
▁commissariat	-11.1653
▁comp	-11.1653
▁compact	-11.1653
▁compendia	-11.1653
▁compensate	-11.1653
▁compieted	-11.1653
▁compieteness	-11.1653
▁compile	-11.1653
▁compiling	-11.1653
▁composition	-11.1653
▁comprehension	-11.1653
▁computing	-11.1653
▁concrete	-11.1653
▁conditional	-11.1653
▁conductor	-11.1653
▁conferred	-11.1653
▁confirms	-11.1653
▁confiscate	-11.1653
▁confusing	-11.1653
▁consensus	-11.1653
▁considering	-11.1653
▁consistently	-11.1653
▁constant	-11.1653
▁consummated	-11.1653
▁contest	-11.1653
▁contestant	-11.1653
▁continuum	-11.1653
▁contradistinction	-11.1653
▁contrast	-11.1653
▁convoy	-11.1653
▁cora	-11.1653
▁cote	-11.1653
▁counterpart	-11.1653
▁counting	-11.1653
▁cousin	-11.1653
▁covington	-11.1653
▁craft	-11.1653
▁crag	-11.1653
▁crt	-11.1653
▁culture	-11.1653
▁cummings	-11.1653
▁curious	-11.1653
▁curtain	-11.1653
▁custody	-11.1653
▁damn	-11.1653
▁dark	-11.1653
▁darrin	-11.1653
▁daze	-11.1653
▁dcent	-11.1653
▁deanna	-11.1653
▁debenture	-11.1653
▁declare	-11.1653
▁decoration	-11.1653
▁dedicate	-11.1653
▁deemed	-11.1653
▁definite	-11.1653
▁definition	-11.1653
▁delinvest	-11.1653
▁deliquescent	-11.1653
▁delux	-11.1653
▁demagogue	-11.1653
▁demo	-11.1653
▁departure	-11.1653
▁depending	-11.1653
▁derivative	-11.1653
▁derive	-11.1653
▁dewey	-11.1653
▁dietz	-11.1653
▁digging	-11.1653
▁digit	-11.1653
▁diligent	-11.1653
▁dis	-11.1653
▁disappointed	-11.1653
▁discioses	-11.1653
▁discipline	-11.1653
▁disolve	-11.1653
▁district	-11.1653
▁diversified	-11.1653
▁divert	-11.1653
▁dizzy	-11.1653
▁dobson	-11.1653
▁doilars	-11.1653
▁dol	-11.1653
▁domain	-11.1653
▁doorstep	-11.1653
▁dozen	-11.1653
▁dramatic	-11.1653
▁driven	-11.1653
▁duck	-11.1653
▁dunn	-11.1653
▁duration	-11.1653
▁dwarf	-11.1653
▁dwl	-11.1653
▁dying	-11.1653
▁dynamic	-11.1653
▁eading	-11.1653
▁earnest	-11.1653
▁eddy	-11.1653
▁editorial	-11.1653
▁edmund	-11.1653
▁eecc	-11.1653
▁efface	-11.1653
▁effervescent	-11.1653
▁effluvium	-11.1653
▁eighteen	-11.1653
▁ejaculation	-11.1653
▁elaine	-11.1653
▁eliminating	-11.1653
▁eloise	-11.1653
▁elsewhere	-11.1653
▁emile	-11.1653
▁emily	-11.1653
▁enabled	-11.1653
▁encarta	-11.1653
▁encounter	-11.1653
▁encyclopedia	-11.1653
▁enronavailsl	-11.1653
▁ent	-11.1653
▁entitled	-11.1653
▁epa	-11.1653
▁era	-11.1653
▁eshopkey	-11.1653
▁eve	-11.1653
▁everywhere	-11.1653
▁exceptional	-11.1653
▁excluding	-11.1653
▁exclusion	-11.1653
▁exist	-11.1653
▁extending	-11.1653
▁extends	-11.1653
▁fabra	-11.1653
▁fails	-11.1653
▁false	-11.1653
▁famiiiar	-11.1653
▁fan	-11.1653
▁fastest	-11.1653
▁featuring	-11.1653
▁fellow	-11.1653
▁fercsr	-11.1653
▁fig	-11.1653
▁figured	-11.1653
▁filename	-11.1653
▁finland	-11.1653
▁fixture	-11.1653
▁flagstaff	-11.1653
▁fleet	-11.1653
▁floppy	-11.1653
▁fly	-11.1653
▁flyer	-11.1653
▁followed	-11.1653
▁followup	-11.1653
▁fool	-11.1653
▁forbid	-11.1653
▁fore	-11.1653
▁formation	-11.1653
▁formulated	-11.1653
▁foster	-11.1653
▁foward	-11.1653
▁franck	-11.1653
▁frankfurt	-11.1653
▁freight	-11.1653
▁french	-11.1653
▁fresco	-11.1653
▁frustrating	-11.1653
▁fundamental	-11.1653
▁funky	-11.1653
▁furnish	-11.1653
▁gained	-11.1653
▁gcp	-11.1653
▁gear	-11.1653
▁gemc	-11.1653
▁genus	-11.1653
▁ggrant	-11.1653
▁ggts	-11.1653
▁glen	-11.1653
▁globally	-11.1653
▁goais	-11.1653
▁goforth	-11.1653
▁gop	-11.1653
▁governor	-11.1653
▁gram	-11.1653
▁greta	-11.1653
▁grid	-11.1653
▁grows	-11.1653
▁guarant	-11.1653
▁gucci	-11.1653
▁gullion	-11.1653
▁haden	-11.1653
▁hail	-11.1653
▁hairy	-11.1653
▁hamilton	-11.1653
▁hankins	-11.1653
▁hannah	-11.1653
▁happier	-11.1653
▁harry	-11.1653
▁harwood	-11.1653
▁hat	-11.1653
▁healthier	-11.1653
▁hectic	-11.1653
▁helmrich	-11.1653
▁helton	-11.1653
▁herald	-11.1653
▁heree	-11.1653
▁hippa	-11.1653
▁hire	-11.1653
▁historica	-11.1653
▁hitting	-11.1653
▁hole	-11.1653
▁hoopitup	-11.1653
▁hoosier	-11.1653
▁hoskins	-11.1653
▁huffsmith	-11.1653
▁hung	-11.1653
▁hurricane	-11.1653
▁hurta	-11.1653
▁hyatt	-11.1653
▁identification	-11.1653
▁ignore	-11.1653
▁ike	-11.1653
▁impotent	-11.1653
▁impress	-11.1653
▁inactivated	-11.1653
▁inception	-11.1653
▁incredibly	-11.1653
▁industrialsmonthly	-11.1653
▁initiative	-11.1653
▁injured	-11.1653
▁instructed	-11.1653
▁interconnects	-11.1653
▁intrastates	-11.1653
▁introduced	-11.1653
▁introduction	-11.1653
▁investigate	-11.1653
▁iona	-11.1653
▁ira	-11.1653
▁iraqi	-11.1653
▁iscsi	-11.1653
▁itra	-11.1653
▁jacob	-11.1653
▁jessica	-11.1653
▁jewelry	-11.1653
▁jitter	-11.1653
▁jon	-11.1653
▁jordan	-11.1653
▁juanita	-11.1653
▁kara	-11.1653
▁katie	-11.1653
▁kenseaman	-11.1653
▁killen	-11.1653
▁kimberlite	-11.1653
▁kingdom	-11.1653
▁klussmann	-11.1653
▁knowing	-11.1653
▁ksign	-11.1653
▁kylie	-11.1653
▁lamay	-11.1653
▁lang	-11.1653
▁lange	-11.1653
▁lauderdale	-11.1653
▁launching	-11.1653
▁laurel	-11.1653
▁lawsuit	-11.1653
▁ldc	-11.1653
▁ledger	-11.1653
▁legend	-11.1653
▁legitimate	-11.1653
▁lesser	-11.1653
▁letterhead	-11.1653
▁lev	-11.1653
▁library	-11.1653
▁lifetime	-11.1653
▁limo	-11.1653
▁livonia	-11.1653
▁lmmbtu	-11.1653
▁logging	-11.1653
▁logitech	-11.1653
▁loring	-11.1653
▁lowered	-11.1653
▁magic	-11.1653
▁mainly	-11.1653
▁maintained	-11.1653
▁majure	-11.1653
▁maldonado	-11.1653
▁mammoth	-11.1653
▁managment	-11.1653
▁mandatory	-11.1653
▁manfred	-11.1653
▁mann	-11.1653
▁manufacturing	-11.1653
▁marchand	-11.1653
▁marilyn	-11.1653
▁mastercard	-11.1653
▁mat	-11.1653
▁maurice	-11.1653
▁mcauliff	-11.1653
▁meadowtree	-11.1653
▁meal	-11.1653
▁medg	-11.1653
▁medusa	-11.1653
▁meridian	-11.1653
▁michele	-11.1653
▁midlothian	-11.1653
▁midtex	-11.1653
▁mighty	-11.1653
▁miilennium	-11.1653
▁millenium	-11.1653
▁millennium	-11.1653
▁missionary	-11.1653
▁misty	-11.1653
▁monga	-11.1653
▁mont	-11.1653
▁moorer	-11.1653
▁moran	-11.1653
▁mountain	-11.1653
▁movado	-11.1653
▁muiti	-11.1653
▁mve	-11.1653
▁myers	-11.1653
▁nachlinger	-11.1653
▁nasd	-11.1653
▁nashville	-11.1653
▁necessarily	-11.1653
▁necx	-11.1653
▁neighbor	-11.1653
▁neil	-11.1653
▁nesa	-11.1653
▁newest	-11.1653
▁nigerian	-11.1653
▁nile	-11.1653
▁nominating	-11.1653
▁noneedl	-11.1653
▁nothanks	-11.1653
▁oceania	-11.1653
▁odin	-11.1653
▁oeol	-11.1653
▁offfers	-11.1653
▁officially	-11.1653
▁offsite	-11.1653
▁ohio	-11.1653
▁oklahoma	-11.1653
▁older	-11.1653
▁olvera	-11.1653
▁oma	-11.1653
▁ondarza	-11.1653
▁onl	-11.1653
▁operated	-11.1653
▁opponent	-11.1653
▁oprah	-11.1653
▁optimization	-11.1653
▁optimum	-11.1653
▁oral	-11.1653
▁outline	-11.1653
▁outsourcing	-11.1653
▁overcome	-11.1653
▁painewebber	-11.1653
▁pam	-11.1653
▁pamela	-11.1653
▁paris	-11.1653
▁parked	-11.1653
▁partial	-11.1653
▁passion	-11.1653
▁pda	-11.1653
▁pdx	-11.1653
▁peace	-11.1653
▁pearl	-11.1653
▁pecos	-11.1653
▁pennsylvania	-11.1653
▁pennzoil	-11.1653
▁perfected	-11.1653
▁perfmgmt	-11.1653
▁perlman	-11.1653
▁permission	-11.1653
▁permitting	-11.1653
▁persona	-11.1653
▁peruse	-11.1653
▁perverse	-11.1653
▁petrochemical	-11.1653
▁petrol	-11.1653
▁philadelphia	-11.1653
▁picked	-11.1653
▁picl	-11.1653
▁piper	-11.1653
▁pit	-11.1653
▁plea	-11.1653
▁plll	-11.1653
▁pma	-11.1653
▁poem	-11.1653
▁pompeu	-11.1653
▁portable	-11.1653
▁powerquest	-11.1653
▁ppa	-11.1653
▁ppt	-11.1653
▁practical	-11.1653
▁prayed	-11.1653
▁praying	-11.1653
▁preceding	-11.1653
▁premature	-11.1653
▁premier	-11.1653
▁prescrlption	-11.1653
▁presentiy	-11.1653
▁prestigious	-11.1653
▁presume	-11.1653
▁prevention	-11.1653
▁prnewswire	-11.1653
▁prodigy	-11.1653
▁promised	-11.1653
▁propose	-11.1653
▁protest	-11.1653
▁psig	-11.1653
▁pumper	-11.1653
▁pussy	-11.1653
▁qualification	-11.1653
▁que	-11.1653
▁qui	-11.1653
▁quicker	-11.1653
▁quigley	-11.1653
▁r	-11.1653
▁rabbit	-11.1653
▁rado	-11.1653
▁raleigh	-11.1653
▁ratio	-11.1653
▁ratnala	-11.1653
▁rcs	-11.1653
▁realtor	-11.1653
▁rebekah	-11.1653
▁recap	-11.1653
▁recharge	-11.1653
▁reciept	-11.1653
▁reclamation	-11.1653
▁recognition	-11.1653
▁reconciled	-11.1653
▁recoup	-11.1653
▁recoverable	-11.1653
▁redeliver	-11.1653
▁redundancy	-11.1653
▁ree	-11.1653
▁reiease	-11.1653
▁reimbursement	-11.1653
▁rejected	-11.1653
▁reliability	-11.1653
▁repathed	-11.1653
▁repeated	-11.1653
▁reschedule	-11.1653
▁rescue	-11.1653
▁reset	-11.1653
▁retrieval	-11.1653
▁revising	-11.1653
▁ric	-11.1653
▁rica	-11.1653
▁ridia	-11.1653
▁rising	-11.1653
▁roaring	-11.1653
▁roberson	-11.1653
▁rogers	-11.1653
▁ronnie	-11.1653
▁ross	-11.1653
▁rotating	-11.1653
▁rowspan	-11.1653
▁rozycki	-11.1653
▁rtackett	-11.1653
▁rubble	-11.1653
▁russell	-11.1653
▁safari	-11.1653
▁safeguard	-11.1653
▁sander	-11.1653
▁sara	-11.1653
▁scarborough	-11.1653
▁schott	-11.1653
▁schwieger	-11.1653
▁scientific	-11.1653
▁score	-11.1653
▁seales	-11.1653
▁secretary	-11.1653
▁securing	-11.1653
▁seiected	-11.1653
▁sel	-11.1653
▁senator	-11.1653
▁sexually	-11.1653
▁shail	-11.1653
▁shankman	-11.1653
▁shaun	-11.1653
▁shelly	-11.1653
▁shepherd	-11.1653
▁shiip	-11.1653
▁shoemake	-11.1653
▁shore	-11.1653
▁shower	-11.1653
▁sierra	-11.1653
▁sigma	-11.1653
▁simultaneously	-11.1653
▁sin	-11.1653
▁sincere	-11.1653
▁slightly	-11.1653
▁slim	-11.1653
▁smell	-11.1653
▁snapshot	-11.1653
▁soaring	-11.1653
▁social	-11.1653
▁sohne	-11.1653
▁soiicitation	-11.1653
▁sol	-11.1653
▁solving	-11.1653
▁sonar	-11.1653
▁specialty	-11.1653
▁specification	-11.1653
▁spence	-11.1653
▁spends	-11.1653
▁sponsored	-11.1653
▁stablilized	-11.1653
▁stalin	-11.1653
▁steagall	-11.1653
▁sticker	-11.1653
▁stingray	-11.1653
▁straightforward	-11.1653
▁stratified	-11.1653
▁subpoena	-11.1653
▁subscribed	-11.1653
▁suck	-11.1653
▁suffice	-11.1653
▁sukaly	-11.1653
▁sup	-11.1653
▁supplement	-11.1653
▁supramax	-11.1653
▁surveyed	-11.1653
▁susie	-11.1653
▁swamp	-11.1653
▁sweep	-11.1653
▁synthetic	-11.1653
▁tagg	-11.1653
▁tail	-11.1653
▁taste	-11.1653
▁tci	-11.1653
▁tear	-11.1653
▁ted	-11.1653
▁teenager	-11.1653
▁tejones	-11.1653
▁temporarily	-11.1653
▁theme	-11.1653
▁thereof	-11.1653
▁thlt	-11.1653
▁throughput	-11.1653
▁throw	-11.1653
▁tiered	-11.1653
▁tire	-11.1653
▁tissue	-11.1653
▁tnray	-11.1653
▁tocks	-11.1653
▁torrey	-11.1653
▁tpa	-11.1653
▁trabulsi	-11.1653
▁transistion	-11.1653
▁treating	-11.1653
▁trick	-11.1653
▁tube	-11.1653
▁turkey	-11.1653
▁tutorial	-11.1653
▁twelve	-11.1653
▁tyler	-11.1653
▁ulead	-11.1653
▁undiscovered	-11.1653
▁unfinaled	-11.1653
▁universal	-11.1653
▁universitat	-11.1653
▁unopened	-11.1653
▁unprecedented	-11.1653
▁unsub	-11.1653
▁upper	-11.1653
▁ups	-11.1653
▁upto	-11.1653
▁upward	-11.1653
▁utilized	-11.1653
▁utilizes	-11.1653
▁utmost	-11.1653
▁vaiium	-11.1653
▁valentine	-11.1653
▁vcsc	-11.1653
▁veronica	-11.1653
▁verse	-11.1653
▁vertical	-11.1653
▁viicodin	-11.1653
▁virtue	-11.1653
▁visitor	-11.1653
▁volunteer	-11.1653
▁wade	-11.1653
▁wage	-11.1653
▁wallumrod	-11.1653
▁walton	-11.1653
▁wanda	-11.1653
▁warehouse	-11.1653
▁warned	-11.1653
▁wavefront	-11.1653
▁wearing	-11.1653
▁webmaster	-11.1653
▁wedding	-11.1653
▁weil	-11.1653
▁wellbore	-11.1653
▁wes	-11.1653
▁whalley	-11.1653
▁whiteboard	-11.1653
▁wildfire	-11.1653
▁williamson	-11.1653
▁willingness	-11.1653
▁wilma	-11.1653
▁wimberley	-11.1653
▁wired	-11.1653
▁wkd	-11.1653
▁workstation	-11.1653
▁wounded	-11.1653
▁wrongfuily	-11.1653
▁wxga	-11.1653
▁zbaqooqk	-11.1653
▁zipper	-11.1653
▁zwallet	-11.1653
▁003	-11.3884
▁0031	-11.3884
▁006	-11.3884
▁007	-11.3884
▁010	-11.3884
▁059	-11.3884
▁0630	-11.3884
▁067	-11.3884
▁073	-11.3884
▁0989814	-11.3884
▁10000	-11.3884
▁1023	-11.3884
▁1040	-11.3884
▁1104	-11.3884
▁1106	-11.3884
▁117	-11.3884
▁11814	-11.3884
▁11871528	-11.3884
▁11958	-11.3884
▁12200	-11.3884
▁1256	-11.3884
▁125899	-11.3884
▁126281	-11.3884
▁1265	-11.3884
▁133196	-11.3884
▁1332	-11.3884
▁1351	-11.3884
▁138605	-11.3884
▁144049	-11.3884
▁144052	-11.3884
▁1441	-11.3884
▁145	-11.3884
▁1459	-11.3884
▁148382	-11.3884
▁148396	-11.3884
▁1497	-11.3884
▁152	-11.3884
▁1528	-11.3884
▁155	-11.3884
▁156337	-11.3884
▁156342	-11.3884
▁158	-11.3884
▁168	-11.3884
▁177	-11.3884
▁1800	-11.3884
▁1831	-11.3884
▁1980	-11.3884
▁1988	-11.3884
▁2003451	-11.3884
▁2019	-11.3884
▁204	-11.3884
▁205	-11.3884
▁233685	-11.3884
▁234567890	-11.3884
▁236	-11.3884
▁239	-11.3884
▁246637	-11.3884
▁247	-11.3884
▁2485	-11.3884
▁2495	-11.3884
▁251	-11.3884
▁254839	-11.3884
▁2601	-11.3884
▁265	-11.3884
▁27099	-11.3884
▁2804	-11.3884
▁2920	-11.3884
▁296	-11.3884
▁302	-11.3884
▁303	-11.3884
▁3103	-11.3884
▁317	-11.3884
▁31933	-11.3884
▁323	-11.3884
▁33278	-11.3884
▁334	-11.3884
▁3355	-11.3884
▁3369	-11.3884
▁339933	-11.3884
▁343	-11.3884
▁353	-11.3884
▁362	-11.3884
▁36353	-11.3884
▁364	-11.3884
▁37386	-11.3884
▁3745	-11.3884
▁381	-11.3884
▁382	-11.3884
▁388	-11.3884
▁39050	-11.3884
▁401	-11.3884
▁402	-11.3884
▁403	-11.3884
▁4040	-11.3884
▁411	-11.3884
▁413	-11.3884
▁414	-11.3884
▁41970	-11.3884
▁422	-11.3884
▁4229	-11.3884
▁429	-11.3884
▁432	-11.3884
▁4400	-11.3884
▁443	-11.3884
▁4486	-11.3884
▁4507	-11.3884
▁455	-11.3884
▁456	-11.3884
▁461059	-11.3884
▁465322	-11.3884
▁470	-11.3884
▁490	-11.3884
▁498	-11.3884
▁501	-11.3884
▁503	-11.3884
▁5098	-11.3884
▁5140	-11.3884
▁516	-11.3884
▁522	-11.3884
▁525	-11.3884
▁535	-11.3884
▁5427	-11.3884
▁544	-11.3884
▁545	-11.3884
▁549	-11.3884
▁557	-11.3884
▁575	-11.3884
▁5796	-11.3884
▁5801	-11.3884
▁591	-11.3884
▁591307	-11.3884
▁594	-11.3884
▁6000	-11.3884
▁6002	-11.3884
▁6014	-11.3884
▁603	-11.3884
▁603107	-11.3884
▁6067	-11.3884
▁607	-11.3884
▁608	-11.3884
▁610	-11.3884
▁612	-11.3884
▁615	-11.3884
▁622	-11.3884
▁624	-11.3884
▁628	-11.3884
▁629	-11.3884
▁6308	-11.3884
▁635	-11.3884
▁6357	-11.3884
▁6373	-11.3884
▁644	-11.3884
▁6449	-11.3884
▁6467	-11.3884
▁6487	-11.3884
▁6549	-11.3884
▁660	-11.3884
▁6600	-11.3884
▁666	-11.3884
▁6673	-11.3884
▁679859	-11.3884
▁681	-11.3884
▁6858	-11.3884
▁710	-11.3884
▁711	-11.3884
▁7159	-11.3884
▁719	-11.3884
▁7280	-11.3884
▁72893	-11.3884
▁7701	-11.3884
▁77068	-11.3884
▁77380	-11.3884
▁777	-11.3884
▁778	-11.3884
▁8024	-11.3884
▁810	-11.3884
▁819348	-11.3884
▁827	-11.3884
▁838	-11.3884
▁84079	-11.3884
▁8420	-11.3884
▁854	-11.3884
▁857	-11.3884
▁8658	-11.3884
▁878	-11.3884
▁890	-11.3884
▁897	-11.3884
▁902	-11.3884
▁907	-11.3884
▁920	-11.3884
▁92155	-11.3884
▁922	-11.3884
▁92881	-11.3884
▁944	-11.3884
▁945	-11.3884
▁950	-11.3884
▁959	-11.3884
▁963	-11.3884
▁9682	-11.3884
▁974	-11.3884
▁975	-11.3884
▁976	-11.3884
▁9760	-11.3884
▁980584	-11.3884
▁9840	-11.3884
▁9843	-11.3884
▁9847	-11.3884
▁986884	-11.3884
▁987	-11.3884
▁9872	-11.3884
▁9874	-11.3884
▁9880	-11.3884
▁9881	-11.3884
▁98926	-11.3884
▁aaron	-11.3884
▁aba	-11.3884
▁aber	-11.3884
▁abet	-11.3884
▁abnormal	-11.3884
▁abstractor	-11.3884
▁abundant	-11.3884
▁abused	-11.3884
▁accepts	-11.3884
▁accessible	-11.3884
▁accessrx	-11.3884
▁accommodation	-11.3884
▁accountonline	-11.3884
▁accredit	-11.3884
▁achieving	-11.3884
▁acquiring	-11.3884
▁activated	-11.3884
▁admired	-11.3884
▁aec	-11.3884
▁aeruginosa	-11.3884
▁aggregate	-11.3884
▁aguayo	-11.3884
▁aide	-11.3884
▁aimed	-11.3884
▁aimtech	-11.3884
▁airmail	-11.3884
▁airy	-11.3884
▁alabama	-11.3884
▁alannou	-11.3884
▁alberta	-11.3884
▁alexander	-11.3884
▁alium	-11.3884
▁allege	-11.3884
▁allison	-11.3884
▁alliterate	-11.3884
▁alloc	-11.3884
▁allwein	-11.3884
▁alp	-11.3884
▁alphanumeric	-11.3884
▁alphonso	-11.3884
▁alright	-11.3884
▁alveolus	-11.3884
▁amateur	-11.3884
▁ambiien	-11.3884
▁ambition	-11.3884
▁americ	-11.3884
▁anachronism	-11.3884
▁anal	-11.3884
▁analog	-11.3884
▁analogue	-11.3884
▁aniline	-11.3884
▁aniseikonic	-11.3884
▁annette	-11.3884
▁anterior	-11.3884
▁anthropomorphism	-11.3884
▁antigen	-11.3884
▁antioch	-11.3884
▁anxious	-11.3884
▁anyways	-11.3884
▁apostolic	-11.3884
▁appraisal	-11.3884
▁approver	-11.3884
▁aquinas	-11.3884
▁arafat	-11.3884
▁architectural	-11.3884
▁archive	-11.3884
▁arduous	-11.3884
▁areveffo	-11.3884
▁argentina	-11.3884
▁argpc	-11.3884
▁arialba	-11.3884
▁arialour	-11.3884
▁arialretail	-11.3884
▁arialyou	-11.3884
▁arises	-11.3884
▁arrowhead	-11.3884
▁arsine	-11.3884
▁arthritis	-11.3884
▁aruba	-11.3884
▁ascription	-11.3884
▁ashland	-11.3884
▁ashley	-11.3884
▁asks	-11.3884
▁assemble	-11.3884
▁assessor	-11.3884
▁athlete	-11.3884
▁ation	-11.3884
▁atkins	-11.3884
▁atm	-11.3884
▁atmospheric	-11.3884
▁attempted	-11.3884
▁attendee	-11.3884
▁attire	-11.3884
▁attribute	-11.3884
▁auch	-11.3884
▁augusthome	-11.3884
▁augustine	-11.3884
▁aurora	-11.3884
▁authorization	-11.3884
▁autocad	-11.3884
▁automation	-11.3884
▁availabie	-11.3884
▁avertive	-11.3884
▁avogadro	-11.3884
▁await	-11.3884
▁awful	-11.3884
▁axisymmetric	-11.3884
▁azurix	-11.3884
▁babe	-11.3884
▁backplane	-11.3884
▁bahamas	-11.3884
▁baldpate	-11.3884
▁balloon	-11.3884
▁band	-11.3884
▁barely	-11.3884
▁barge	-11.3884
▁barnes	-11.3884
▁barreis	-11.3884
▁barring	-11.3884
▁baseman	-11.3884
▁bath	-11.3884
▁batik	-11.3884
▁baum	-11.3884
▁bazaar	-11.3884
▁bcos	-11.3884
▁be	-11.3884
▁beaver	-11.3884
▁beckon	-11.3884
▁bedridden	-11.3884
▁beijing	-11.3884
▁belch	-11.3884
▁belgium	-11.3884
▁belmont	-11.3884
▁beloit	-11.3884
▁belt	-11.3884
▁beman	-11.3884
▁beneath	-11.3884
▁bennick	-11.3884
▁berlin	-11.3884
▁berman	-11.3884
▁betray	-11.3884
▁bhavsar	-11.3884
▁bherod	-11.3884
▁bi	-11.3884
▁bibi	-11.3884
▁biblical	-11.3884
▁bilder	-11.3884
▁birk	-11.3884
▁bitch	-11.3884
▁bizarre	-11.3884
▁bjd	-11.3884
▁bjorn	-11.3884
▁blackice	-11.3884
▁blake	-11.3884
▁blanc	-11.3884
▁blanca	-11.3884
▁bland	-11.3884
▁blastula	-11.3884
▁blinn	-11.3884
▁blk	-11.3884
▁blob	-11.3884
▁blocker	-11.3884
▁bloodbath	-11.3884
▁bloodstream	-11.3884
▁blown	-11.3884
▁blumenthal	-11.3884
▁bluster	-11.3884
▁boast	-11.3884
▁boatman	-11.3884
▁bodybuild	-11.3884
▁bolivia	-11.3884
▁bonanza	-11.3884
▁bondsman	-11.3884
▁bonito	-11.3884
▁bookbind	-11.3884
▁booking	-11.3884
▁booth	-11.3884
▁boris	-11.3884
▁borrow	-11.3884
▁bos	-11.3884
▁bound	-11.3884
▁boyd	-11.3884
▁braden	-11.3884
▁bradley	-11.3884
▁braid	-11.3884
▁bramble	-11.3884
▁brandy	-11.3884
▁brazilian	-11.3884
▁breveffo	-11.3884
▁briefly	-11.3884
▁broadway	-11.3884
▁bros	-11.3884
▁bryancy	-11.3884
▁bryant	-11.3884
▁bud	-11.3884
▁buenos	-11.3884
▁burch	-11.3884
▁burgess	-11.3884
▁buried	-11.3884
▁butane	-11.3884
▁buuyy	-11.3884
▁byline	-11.3884
▁byroad	-11.3884
▁byzantine	-11.3884
▁bze	-11.3884
▁cabinet	-11.3884
▁cackle	-11.3884
▁cakewalk	-11.3884
▁camel	-11.3884
▁canberra	-11.3884
▁cancellation	-11.3884
▁candace	-11.3884
▁candid	-11.3884
▁caneum	-11.3884
▁cannel	-11.3884
▁canopus	-11.3884
▁capable	-11.3884
▁carbon	-11.3884
▁cardbus	-11.3884
▁cardinal	-11.3884
▁carolina	-11.3884
▁caroline	-11.3884
▁carolyn	-11.3884
▁carrying	-11.3884
▁cartridgesfor	-11.3884
▁casas	-11.3884
▁casey	-11.3884
▁castanet	-11.3884
▁catalytic	-11.3884
▁cater	-11.3884
▁cattail	-11.3884
▁cattle	-11.3884
▁causey	-11.3884
▁cautious	-11.3884
▁caveman	-11.3884
▁caviar	-11.3884
▁cavilling	-11.3884
▁celanese	-11.3884
▁centertable	-11.3884
▁centre	-11.3884
▁centrino	-11.3884
▁centrinol	-11.3884
▁cfr	-11.3884
▁chairwoman	-11.3884
▁champ	-11.3884
▁chandler	-11.3884
▁chaos	-11.3884
▁character	-11.3884
▁charm	-11.3884
▁cheating	-11.3884
▁cheeap	-11.3884
▁cheesy	-11.3884
▁chick	-11.3884
▁childers	-11.3884
▁chimney	-11.3884
▁chinaman	-11.3884
▁cholinesterase	-11.3884
▁choosing	-11.3884
▁chose	-11.3884
▁christen	-11.3884
▁christiansen	-11.3884
▁chronicle	-11.3884
▁chun	-11.3884
▁cial	-11.3884
▁cico	-11.3884
▁cig	-11.3884
▁circle	-11.3884
▁cite	-11.3884
▁citygate	-11.3884
▁clair	-11.3884
▁clarke	-11.3884
▁cleaner	-11.3884
▁cleaning	-11.3884
▁clearlake	-11.3884
▁clemson	-11.3884
▁clergyman	-11.3884
▁clifton	-11.3884
▁clinch	-11.3884
▁clmp	-11.3884
▁clothes	-11.3884
▁coach	-11.3884
▁coarse	-11.3884
▁cobra	-11.3884
▁coca	-11.3884
▁coco	-11.3884
▁coffer	-11.3884
▁cogent	-11.3884
▁cognitive	-11.3884
▁coin	-11.3884
▁colgate	-11.3884
▁coliseum	-11.3884
▁collateral	-11.3884
▁collins	-11.3884
▁collocation	-11.3884
▁cologne	-11.3884
▁combat	-11.3884
▁combining	-11.3884
▁comitas	-11.3884
▁commencing	-11.3884
▁comparable	-11.3884
▁compass	-11.3884
▁compiiance	-11.3884
▁compiled	-11.3884
▁complaisant	-11.3884
▁complementary	-11.3884
▁comply	-11.3884
▁compress	-11.3884
▁conant	-11.3884
▁conceive	-11.3884
▁concentration	-11.3884
▁concession	-11.3884
▁concluded	-11.3884
▁condom	-11.3884
▁confederate	-11.3884
▁confession	-11.3884
▁conflicting	-11.3884
▁congratulate	-11.3884
▁connecticut	-11.3884
▁conscious	-11.3884
▁considerable	-11.3884
▁consignment	-11.3884
▁consisting	-11.3884
▁constraint	-11.3884
▁construct	-11.3884
▁constructive	-11.3884
▁contagious	-11.3884
▁contemporary	-11.3884
▁continuity	-11.3884
▁contr	-11.3884
▁contracted	-11.3884
▁contributor	-11.3884
▁contro	-11.3884
▁convivial	-11.3884
▁cony	-11.3884
▁cooke	-11.3884
▁cooky	-11.3884
▁copier	-11.3884
▁cork	-11.3884
▁corn	-11.3884
▁corpsman	-11.3884
▁correcting	-11.3884
▁corrupted	-11.3884
▁corum	-11.3884
▁cosmetic	-11.3884
▁cosmic	-11.3884
▁cosst	-11.3884
▁costello	-11.3884
▁costing	-11.3884
▁costly	-11.3884
▁councilwoman	-11.3884
▁counsel	-11.3884
▁counterargument	-11.3884
▁counterfeit	-11.3884
▁coupled	-11.3884
▁courteous	-11.3884
▁courtney	-11.3884
▁coveted	-11.3884
▁crab	-11.3884
▁craftsman	-11.3884
▁crash	-11.3884
▁craze	-11.3884
▁creator	-11.3884
▁creveffo	-11.3884
▁cringe	-11.3884
▁croatian	-11.3884
▁crodrig	-11.3884
▁cromwellian	-11.3884
▁crossroad	-11.3884
▁crossword	-11.3884
▁crosswort	-11.3884
▁crowd	-11.3884
▁crump	-11.3884
▁cumberland	-11.3884
▁curiosity	-11.3884
▁curt	-11.3884
▁cute	-11.3884
▁cutie	-11.3884
▁dado	-11.3884
▁dagger	-11.3884
▁daiiy	-11.3884
▁dainty	-11.3884
▁dandy	-11.3884
▁dane	-11.3884
▁dangerous	-11.3884
▁dann	-11.3884
▁darken	-11.3884
▁darrell	-11.3884
▁datacenter	-11.3884
▁datecode	-11.3884
▁daugherty	-11.3884
▁daxa	-11.3884
▁daytime	-11.3884
▁daytona	-11.3884
▁dcl	-11.3884
▁dealmaker	-11.3884
▁debra	-11.3884
▁decides	-11.3884
▁decisive	-11.3884
▁decline	-11.3884
▁decreased	-11.3884
▁deflector	-11.3884
▁degassing	-11.3884
▁dehy	-11.3884
▁delegable	-11.3884
▁deleted	-11.3884
▁delicatessen	-11.3884
▁demountable	-11.3884
▁denise	-11.3884
▁denoted	-11.3884
▁dental	-11.3884
▁dentist	-11.3884
▁deploy	-11.3884
▁deregulation	-11.3884
▁desc	-11.3884
▁desolater	-11.3884
▁desperate	-11.3884
▁despondent	-11.3884
▁destruction	-11.3884
▁detm	-11.3884
▁detonated	-11.3884
▁deveiopment	-11.3884
▁develops	-11.3884
▁dexatrim	-11.3884
▁dialogue	-11.3884
▁diatom	-11.3884
▁dickens	-11.3884
▁dickinson	-11.3884
▁dictate	-11.3884
▁dictionary	-11.3884
▁dietary	-11.3884
▁diffuse	-11.3884
▁diiigence	-11.3884
▁dior	-11.3884
▁disco	-11.3884
▁discontinue	-11.3884
▁discretion	-11.3884
▁dishwasher	-11.3884
▁dismantle	-11.3884
▁disneyland	-11.3884
▁dispatch	-11.3884
▁dissemination	-11.3884
▁ditch	-11.3884
▁divided	-11.3884
▁dixie	-11.3884
▁documented	-11.3884
▁doe	-11.3884
▁dolars	-11.3884
▁donate	-11.3884
▁dormant	-11.3884
▁dossier	-11.3884
▁doubloon	-11.3884
▁downloadable	-11.3884
▁drafted	-11.3884
▁draftee	-11.3884
▁drafting	-11.3884
▁drag	-11.3884
▁driveway	-11.3884
▁dru	-11.3884
▁drunken	-11.3884
▁dtoi	-11.3884
▁ducote	-11.3884
▁duel	-11.3884
▁dukepower	-11.3884
▁dunhill	-11.3884
▁durer	-11.3884
▁dustin	-11.3884
▁duval	-11.3884
▁eas	-11.3884
▁easement	-11.3884
▁ebook	-11.3884
▁ebooks	-11.3884
▁ec	-11.3884
▁echterhoff	-11.3884
▁editing	-11.3884
▁edna	-11.3884
▁edt	-11.3884
▁educated	-11.3884
▁eid	-11.3884
▁eigenfunction	-11.3884
▁eighty	-11.3884
▁eis	-11.3884
▁elastomer	-11.3884
▁electrolytic	-11.3884
▁elide	-11.3884
▁eligibility	-11.3884
▁elisabeth	-11.3884
▁elite	-11.3884
▁ello	-11.3884
▁elsie	-11.3884
▁ema	-11.3884
▁emailing	-11.3884
▁embeddable	-11.3884
▁embody	-11.3884
▁emerald	-11.3884
▁emerged	-11.3884
▁emotional	-11.3884
▁empire	-11.3884
▁employed	-11.3884
▁enabied	-11.3884
▁endgame	-11.3884
▁enhancing	-11.3884
▁enichem	-11.3884
▁ensures	-11.3884
▁enters	-11.3884
▁entertain	-11.3884
▁entourage	-11.3884
▁envelope	-11.3884
▁eott	-11.3884
▁erectlons	-11.3884
▁ericsson	-11.3884
▁ernie	-11.3884
▁erp	-11.3884
▁espinoza	-11.3884
▁espllp	-11.3884
▁ethernet	-11.3884
▁ethic	-11.3884
▁etn	-11.3884
▁eur	-11.3884
▁evaluated	-11.3884
▁exceeding	-11.3884
▁excelsior	-11.3884
▁excessive	-11.3884
▁exclusively	-11.3884
▁expands	-11.3884
▁expatriate	-11.3884
▁expedite	-11.3884
▁expenditure	-11.3884
▁explored	-11.3884
▁expression	-11.3884
▁eyesight	-11.3884
▁facial	-11.3884
▁fade	-11.3884
▁faithfully	-11.3884
▁fallen	-11.3884
▁falluja	-11.3884
▁fantasy	-11.3884
▁fatal	-11.3884
▁faulty	-11.3884
▁fbi	-11.3884
▁fendi	-11.3884
▁ffa	-11.3884
▁ffaoa	-11.3884
▁fftable	-11.3884
▁filthy	-11.3884
▁finalsmoke	-11.3884
▁financia	-11.3884
▁financier	-11.3884
▁firewire	-11.3884
▁firing	-11.3884
▁fiscal	-11.3884
▁fishing	-11.3884
▁flagged	-11.3884
▁flo	-11.3884
▁floating	-11.3884
▁florence	-11.3884
▁fluke	-11.3884
▁fonds	-11.3884
▁footprint	-11.3884
▁fort	-11.3884
▁founded	-11.3884
▁fountain	-11.3884
▁fraser	-11.3884
▁frau	-11.3884
▁fre	-11.3884
▁frederic	-11.3884
▁freshwater	-11.3884
▁fritz	-11.3884
▁frmly	-11.3884
▁fromact	-11.3884
▁frontlinefocus	-11.3884
▁fry	-11.3884
▁fte	-11.3884
▁fucked	-11.3884
▁gabriel	-11.3884
▁gage	-11.3884
▁gail	-11.3884
▁gal	-11.3884
▁gallanted	-11.3884
▁galleryfurniture	-11.3884
▁garygreene	-11.3884
▁gaskill	-11.3884
▁gasoline	-11.3884
▁gatewood	-11.3884
▁gather	-11.3884
▁gauge	-11.3884
▁geile	-11.3884
▁genco	-11.3884
▁generalist	-11.3884
▁gent	-11.3884
▁geoff	-11.3884
▁geographic	-11.3884
▁gerard	-11.3884
▁german	-11.3884
▁gesehen	-11.3884
▁gevalia	-11.3884
▁ggo	-11.3884
▁gillespie	-11.3884
▁gingham	-11.3884
▁girard	-11.3884
▁gister	-11.3884
▁gladewater	-11.3884
▁glashute	-11.3884
▁glichkeit	-11.3884
▁gmbh	-11.3884
▁gmweissman	-11.3884
▁gocougs	-11.3884
▁godparent	-11.3884
▁gogh	-11.3884
▁golfboxx	-11.3884
▁golly	-11.3884
▁gorbea	-11.3884
▁governing	-11.3884
▁grandchild	-11.3884
▁grandsn	-11.3884
▁grateful	-11.3884
▁graze	-11.3884
▁greed	-11.3884
▁greedy	-11.3884
▁greenhouse	-11.3884
▁grigsby	-11.3884
▁guangzhou	-11.3884
▁guatemaia	-11.3884
▁guei	-11.3884
▁hackett	-11.3884
▁hairmagict	-11.3884
▁hallo	-11.3884
▁hampton	-11.3884
▁har	-11.3884
▁harbor	-11.3884
▁hardcore	-11.3884
▁harrington	-11.3884
▁hazard	-11.3884
▁heatherloch	-11.3884
▁heating	-11.3884
▁heaven	-11.3884
▁hedging	-11.3884
▁heineke	-11.3884
▁helen	-11.3884
▁hendrickson	-11.3884
▁herbert	-11.3884
▁hermann	-11.3884
▁hermes	-11.3884
▁hero	-11.3884
▁hiatt	-11.3884
▁higgins	-11.3884
▁highball	-11.3884
▁hisd	-11.3884
▁historic	-11.3884
▁hitch	-11.3884
▁hiv	-11.3884
▁hobbes	-11.3884
▁hollimon	-11.3884
▁hometown	-11.3884
▁honesty	-11.3884
▁horn	-11.3884
▁horton	-11.3884
▁housewife	-11.3884
▁hrweb	-11.3884
▁htmlbody	-11.3884
▁hump	-11.3884
▁hunting	-11.3884
▁hurd	-11.3884
▁hypoactive	-11.3884
▁icebreaker	-11.3884
▁idiot	-11.3884
▁idolatry	-11.3884
▁ieee	-11.3884
▁ighting	-11.3884
▁illegal	-11.3884
▁imitation	-11.3884
▁immune	-11.3884
▁imperial	-11.3884
▁impiied	-11.3884
▁impressed	-11.3884
▁impressive	-11.3884
▁inaccuracy	-11.3884
▁inbound	-11.3884
▁incbggc	-11.3884
▁inciudes	-11.3884
▁incurred	-11.3884
▁indian	-11.3884
▁inefficient	-11.3884
▁infodele	-11.3884
▁inheritor	-11.3884
▁initiate	-11.3884
▁inja	-11.3884
▁inline	-11.3884
▁inn	-11.3884
▁innocent	-11.3884
▁innovation	-11.3884
▁inquire	-11.3884
▁inserted	-11.3884
▁insight	-11.3884
▁insured	-11.3884
▁integrate	-11.3884
▁interviewed	-11.3884
▁intimacy	-11.3884
▁inventory	-11.3884
▁invested	-11.3884
▁invite	-11.3884
▁invitee	-11.3884
▁involvement	-11.3884
▁ivory	-11.3884
▁jac	-11.3884
▁jacobsen	-11.3884
▁jdf	-11.3884
▁jealous	-11.3884
▁jean	-11.3884
▁jenkins	-11.3884
▁jet	-11.3884
▁jig	-11.3884
▁jimmy	-11.3884
▁joann	-11.3884
▁johnny	-11.3884
▁joshua	-11.3884
▁joyful	-11.3884
▁judith	-11.3884
▁jun	-11.3884
▁junction	-11.3884
▁junek	-11.3884
▁junk	-11.3884
▁jury	-11.3884
▁kaolin	-11.3884
▁kathleen	-11.3884
▁kelley	-11.3884
▁kennedy	-11.3884
▁keyes	-11.3884
▁kickoff	-11.3884
▁kimberlee	-11.3884
▁kindly	-11.3884
▁klick	-11.3884
▁koenig	-11.3884
▁koerselman	-11.3884
▁koolrx	-11.3884
▁kowloon	-11.3884
▁ksige	-11.3884
▁kuykendall	-11.3884
▁labeling	-11.3884
▁lag	-11.3884
▁lagoon	-11.3884
▁landline	-11.3884
▁lanthanide	-11.3884
▁lars	-11.3884
▁latter	-11.3884
▁laughing	-11.3884
▁laying	-11.3884
▁layne	-11.3884
▁laynie	-11.3884
▁lbellamy	-11.3884
▁lcd	-11.3884
▁learns	-11.3884
▁leather	-11.3884
▁leder	-11.3884
▁leg	-11.3884
▁lega	-11.3884
▁letting	-11.3884
▁leveraging	-11.3884
▁lifted	-11.3884
▁lightly	-11.3884
▁lightweight	-11.3884
▁lim	-11.3884
▁liqueur	-11.3884
▁lisst	-11.3884
▁listening	-11.3884
▁listserv	-11.3884
▁literally	-11.3884
▁littie	-11.3884
▁lium	-11.3884
▁lling	-11.3884
▁llp	-11.3884
▁logistic	-11.3884
▁lonely	-11.3884
▁lorelei	-11.3884
▁lousy	-11.3884
▁loyalty	-11.3884
▁lsg	-11.3884
▁luckily	-11.3884
▁lumberman	-11.3884
▁luminant	-11.3884
▁lyne	-11.3884
▁madrid	-11.3884
▁magee	-11.3884
▁mali	-11.3884
▁manages	-11.3884
▁mandy	-11.3884
▁manhattan	-11.3884
▁marine	-11.3884
▁mariner	-11.3884
▁marketpiace	-11.3884
▁marla	-11.3884
▁marriage	-11.3884
▁marvia	-11.3884
▁maryland	-11.3884
▁matched	-11.3884
▁mauldin	-11.3884
▁maxine	-11.3884
▁maxwell	-11.3884
▁mayor	-11.3884
▁mbi	-11.3884
▁mcdonald	-11.3884
▁mcgrath	-11.3884
▁meadow	-11.3884
▁mechanism	-11.3884
▁megawatt	-11.3884
▁melbourne	-11.3884
▁melinda	-11.3884
▁metz	-11.3884
▁mgi	-11.3884
▁mgt	-11.3884
▁mich	-11.3884
▁midcoast	-11.3884
▁middleman	-11.3884
▁migrating	-11.3884
▁miilion	-11.3884
▁miimizing	-11.3884
▁mileage	-11.3884
▁millionaire	-11.3884
▁mimeole	-11.3884
▁mirror	-11.3884
▁misc	-11.3884
▁mistaken	-11.3884
▁misti	-11.3884
▁mockup	-11.3884
▁monster	-11.3884
▁moosq	-11.3884
▁motion	-11.3884
▁motley	-11.3884
▁mount	-11.3884
▁mozilla	-11.3884
▁mtg	-11.3884
▁munich	-11.3884
▁museum	-11.3884
▁mutt	-11.3884
▁natura	-11.3884
▁naughty	-11.3884
▁ndin	-11.3884
▁negotiate	-11.3884
▁nervous	-11.3884
▁netout	-11.3884
▁netting	-11.3884
▁newark	-11.3884
▁newco	-11.3884
▁newport	-11.3884
▁newspaper	-11.3884
▁newyorklife	-11.3884
▁nexium	-11.3884
▁nicely	-11.3884
▁nicholie	-11.3884
▁nicole	-11.3884
▁nightgown	-11.3884
▁nomina	-11.3884
▁nomlogic	-11.3884
▁normalization	-11.3884
▁norrres	-11.3884
▁nova	-11.3884
▁npi	-11.3884
▁npng	-11.3884
▁nrmm	-11.3884
▁nurse	-11.3884
▁nymex	-11.3884
▁nyu	-11.3884
▁observation	-11.3884
▁occidental	-11.3884
▁occured	-11.3884
▁occuring	-11.3884
▁occurs	-11.3884
▁odds	-11.3884
▁offense	-11.3884
▁ofs	-11.3884
▁oga	-11.3884
▁omnipage	-11.3884
▁omprella	-11.3884
▁operable	-11.3884
▁operative	-11.3884
▁optimist	-11.3884
▁organize	-11.3884
▁originator	-11.3884
▁oris	-11.3884
▁orlando	-11.3884
▁osborne	-11.3884
▁outcome	-11.3884
▁outlined	-11.3884
▁outsource	-11.3884
▁override	-11.3884
▁oversight	-11.3884
▁overstated	-11.3884
▁ownershp	-11.3884
▁packet	-11.3884
▁painting	-11.3884
▁pamphlet	-11.3884
▁panda	-11.3884
▁parliament	-11.3884
▁passenger	-11.3884
▁passionate	-11.3884
▁pattison	-11.3884
▁patton	-11.3884
▁pearce	-11.3884
▁peebles	-11.3884
▁peeples	-11.3884
▁pencil	-11.3884
▁penetrate	-11.3884
▁periodic	-11.3884
▁permanently	-11.3884
▁permian	-11.3884
▁perscriptions	-11.3884
▁petr	-11.3884
▁petroieum	-11.3884
▁pfizer	-11.3884
▁pha	-11.3884
▁pharmacourt	-11.3884
▁phentermlne	-11.3884
▁philanthrope	-11.3884
▁philosopher	-11.3884
▁photooshop	-11.3884
▁pie	-11.3884
▁piedmont	-11.3884
▁pig	-11.3884
▁pixel	-11.3884
▁placestostay	-11.3884
▁plainfield	-11.3884
▁plastic	-11.3884
▁pleasant	-11.3884
▁pllls	-11.3884
▁poetry	-11.3884
▁poison	-11.3884
▁polk	-11.3884
▁polymer	-11.3884
▁popunder	-11.3884
▁positioning	-11.3884
▁posting	-11.3884
▁postion	-11.3884
▁potentially	-11.3884
▁pounce	-11.3884
▁preamble	-11.3884
▁precious	-11.3884
▁predecessor	-11.3884
▁predicted	-11.3884
▁preferably	-11.3884
▁prefix	-11.3884
▁prepaid	-11.3884
▁prescribed	-11.3884
▁prev	-11.3884
▁preventing	-11.3884
▁prevents	-11.3884
▁pri	-11.3884
▁priicce	-11.3884
▁primezone	-11.3884
▁printable	-11.3884
▁prioritize	-11.3884
▁probable	-11.3884
▁procoder	-11.3884
▁productive	-11.3884
▁prof	-11.3884
▁professiona	-11.3884
▁professor	-11.3884
▁proletariat	-11.3884
▁promethe	-11.3884
▁prominent	-11.3884
▁promo	-11.3884
▁promoter	-11.3884
▁promoting	-11.3884
▁prompted	-11.3884
▁prompting	-11.3884
▁prop	-11.3884
▁proportion	-11.3884
▁prorating	-11.3884
▁proteolysis	-11.3884
▁protoco	-11.3884
▁provincial	-11.3884
▁prri	-11.3884
▁prricee	-11.3884
▁prudential	-11.3884
▁ptc	-11.3884
▁publishes	-11.3884
▁pursuing	-11.3884
▁quadripartite	-11.3884
▁quantum	-11.3884
▁queensland	-11.3884
▁queue	-11.3884
▁quicken	-11.3884
▁quiet	-11.3884
▁quinn	-11.3884
▁qwertyl	-11.3884
▁raanan	-11.3884
▁rachel	-11.3884
▁rafah	-11.3884
▁ralph	-11.3884
▁randomly	-11.3884
▁ratification	-11.3884
▁ravage	-11.3884
▁rburchf	-11.3884
▁rbx	-11.3884
▁rcotten	-11.3884
▁rea	-11.3884
▁reaction	-11.3884
▁reallocation	-11.3884
▁rebate	-11.3884
▁rebel	-11.3884
▁receptive	-11.3884
▁reconcile	-11.3884
▁reduces	-11.3884
▁refid	-11.3884
▁refining	-11.3884
▁reflectance	-11.3884
▁refresh	-11.3884
▁refreshed	-11.3884
▁regularly	-11.3884
▁reiiable	-11.3884
▁reimburse	-11.3884
▁reisz	-11.3884
▁relatively	-11.3884
▁relax	-11.3884
▁relaxer	-11.3884
▁releasing	-11.3884
▁reliabie	-11.3884
▁removable	-11.3884
▁renew	-11.3884
▁repackaged	-11.3884
▁repaired	-11.3884
▁repath	-11.3884
▁repathing	-11.3884
▁representaciones	-11.3884
▁rescheduled	-11.3884
▁researching	-11.3884
▁residence	-11.3884
▁responsive	-11.3884
▁restart	-11.3884
▁restate	-11.3884
▁resuiting	-11.3884
▁retailer	-11.3884
▁retaking	-11.3884
▁retired	-11.3884
▁revert	-11.3884
▁richars	-11.3884
▁ringing	-11.3884
▁robbins	-11.3884
▁roberto	-11.3884
▁romano	-11.3884
▁rosa	-11.3884
▁roster	-11.3884
▁rotation	-11.3884
▁routing	-11.3884
▁rrc	-11.3884
▁rrcotten	-11.3884
▁rti	-11.3884
▁rugged	-11.3884
▁ruling	-11.3884
▁russian	-11.3884
▁samantha	-11.3884
▁samir	-11.3884
▁satisfy	-11.3884
▁saturn	-11.3884
▁saver	-11.3884
▁savita	-11.3884
▁savviing	-11.3884
▁sbr	-11.3884
▁scare	-11.3884
▁scene	-11.3884
▁schematic	-11.3884
▁schoolchildren	-11.3884
▁schulte	-11.3884
▁scoop	-11.3884
▁scourge	-11.3884
▁securely	-11.3884
▁sehr	-11.3884
▁separately	-11.3884
▁serf	-11.3884
▁seriously	-11.3884
▁seventy	-11.3884
▁severance	-11.3884
▁severe	-11.3884
▁severely	-11.3884
▁shahalam	-11.3884
▁shanghai	-11.3884
▁sharehoider	-11.3884
▁shelf	-11.3884
▁shepperd	-11.3884
▁shippiing	-11.3884
▁shively	-11.3884
▁shona	-11.3884
▁shoofly	-11.3884
▁shopper	-11.3884
▁shortname	-11.3884
▁simplified	-11.3884
▁simplify	-11.3884
▁simulate	-11.3884
▁simunek	-11.3884
▁singing	-11.3884
▁sizzle	-11.3884
▁skip	-11.3884
▁sleeve	-11.3884
▁sleight	-11.3884
▁smal	-11.3884
▁smil	-11.3884
▁smoker	-11.3884
▁smoothly	-11.3884
▁smuggle	-11.3884
▁smuggling	-11.3884
▁snore	-11.3884
▁snow	-11.3884
▁soffttwares	-11.3884
▁sofftwaree	-11.3884
▁softabs	-11.3884
▁soignet	-11.3884
▁soldstart	-11.3884
▁solicit	-11.3884
▁solicitor	-11.3884
▁solved	-11.3884
▁sooftware	-11.3884
▁sophisticated	-11.3884
▁southeast	-11.3884
▁southland	-11.3884
▁spear	-11.3884
▁specia	-11.3884
▁specializing	-11.3884
▁spite	-11.3884
▁sporting	-11.3884
▁squeal	-11.3884
▁ssl	-11.3884
▁stab	-11.3884
▁stan	-11.3884
▁standing	-11.3884
▁ste	-11.3884
▁steering	-11.3884
▁stern	-11.3884
▁stoxo	-11.3884
▁streamline	-11.3884
▁strengthen	-11.3884
▁stretcher	-11.3884
▁strike	-11.3884
▁stroke	-11.3884
▁strongest	-11.3884
▁struggled	-11.3884
▁subscribe	-11.3884
▁suffer	-11.3884
▁suffered	-11.3884
▁sufficient	-11.3884
▁sulphur	-11.3884
▁sunlit	-11.3884
▁superb	-11.3884
▁superbowl	-11.3884
▁supra	-11.3884
▁supraexpress	-11.3884
▁supreme	-11.3884
▁surgery	-11.3884
▁surplus	-11.3884
▁surprised	-11.3884
▁survival	-11.3884
▁suspending	-11.3884
▁swarthmore	-11.3884
▁sweitzer	-11.3884
▁syndrome	-11.3884
▁systemworks	-11.3884
▁tacton	-11.3884
▁tall	-11.3884
▁tarifa	-11.3884
▁tcash	-11.3884
▁tdtrtd	-11.3884
▁technomarine	-11.3884
▁teenage	-11.3884
▁templeton	-11.3884
▁tempt	-11.3884
▁terrain	-11.3884
▁territory	-11.3884
▁testament	-11.3884
▁thereafter	-11.3884
▁thermal	-11.3884
▁thindata	-11.3884
▁thinh	-11.3884
▁thurs	-11.3884
▁tiffany	-11.3884
▁timeframe	-11.3884
▁timpowell	-11.3884
▁tinsley	-11.3884
▁tinydrive	-11.3884
▁tions	-11.3884
▁tippery	-11.3884
▁tivoli	-11.3884
▁tnpc	-11.3884
▁toilet	-11.3884
▁torus	-11.3884
▁tower	-11.3884
▁tracing	-11.3884
▁tragedy	-11.3884
▁treasure	-11.3884
▁trey	-11.3884
▁triaminic	-11.3884
▁tribune	-11.3884
▁trustworthy	-11.3884
▁ttmt	-11.3884
▁twa	-11.3884
▁twin	-11.3884
▁txglo	-11.3884
▁typicially	-11.3884
▁ultimately	-11.3884
▁un	-11.3884
▁underground	-11.3884
▁unheard	-11.3884
▁unlike	-11.3884
▁unlikely	-11.3884
▁unsolicited	-11.3884
▁unsuitable	-11.3884
▁unter	-11.3884
▁unusual	-11.3884
▁unwarranted	-11.3884
▁upgraded	-11.3884
▁upland	-11.3884
▁urchin	-11.3884
▁urgently	-11.3884
▁usedbr	-11.3884
▁vaiue	-11.3884
▁validated	-11.3884
▁valuation	-11.3884
▁vances	-11.3884
▁var	-11.3884
▁ver	-11.3884
▁vgn	-11.3884
▁victim	-11.3884
▁videodisc	-11.3884
▁viewer	-11.3884
▁viiagra	-11.3884
▁viltz	-11.3884
▁virginia	-11.3884
▁virility	-11.3884
▁vitamin	-11.3884
▁voted	-11.3884
▁votre	-11.3884
▁vpn	-11.3884
▁vprx	-11.3884
▁wagstaff	-11.3884
▁walked	-11.3884
▁walrus	-11.3884
▁walt	-11.3884
▁warm	-11.3884
▁watchdog	-11.3884
▁watson	-11.3884
▁wazzzup	-11.3884
▁weighed	-11.3884
▁weir	-11.3884
▁welis	-11.3884
▁wellbeing	-11.3884
▁wendy	-11.3884
▁werden	-11.3884
▁wgr	-11.3884
▁whereby	-11.3884
▁whitlock	-11.3884
▁widget	-11.3884
▁wiesepape	-11.3884
▁windowxp	-11.3884
▁winfax	-11.3884
▁winn	-11.3884
▁winston	-11.3884
▁wiped	-11.3884
▁wishing	-11.3884
▁withdrawl	-11.3884
▁wiz	-11.3884
▁woodtips	-11.3884
▁workday	-11.3884
▁worldexpo	-11.3884
▁wounding	-11.3884
▁wrap	-11.3884
▁wrongfu	-11.3884
▁wyman	-11.3884
▁xenlcal	-11.3884
▁xml	-11.3884
▁yasser	-11.3884
▁yearly	-11.3884
▁yer	-11.3884
▁yolanda	-11.3884
▁yr	-11.3884
▁yunis	-11.3884
▁zammit	-11.3884
▁zeman	-11.3884
▁zisman	-11.3884
▁zodiac	-11.3884
▁zxgwvpimicrosoft	-11.3884
▁0027	-11.6761
▁0030	-11.6761
▁0067	-11.6761
▁0071	-11.6761
▁013	-11.6761
▁016	-11.6761
▁0232	-11.6761
▁024	-11.6761
▁026	-11.6761
▁029	-11.6761
▁061	-11.6761
▁062	-11.6761
▁069	-11.6761
▁0700	-11.6761
▁075	-11.6761
▁076	-11.6761
▁078	-11.6761
▁0825	-11.6761
▁093	-11.6761
▁0980438	-11.6761
▁0989842	-11.6761
▁10010000876293700	-11.6761
▁10126	-11.6761
▁1024	-11.6761
▁102775	-11.6761
▁10290	-11.6761
▁105124	-11.6761
▁1063	-11.6761
▁109660	-11.6761
▁1102	-11.6761
▁110502	-11.6761
▁11230	-11.6761
▁1160	-11.6761
▁1180	-11.6761
▁121	-11.6761
▁125786	-11.6761
▁128952	-11.6761
▁130917	-11.6761
▁1315	-11.6761
▁132975	-11.6761
▁133010	-11.6761
▁133179	-11.6761
▁1335	-11.6761
▁137870	-11.6761
▁138550	-11.6761
▁1386	-11.6761
▁1409	-11.6761
▁144264	-11.6761
▁1460	-11.6761
▁148390	-11.6761
▁1521	-11.6761
▁152638	-11.6761
▁1549	-11.6761
▁1554	-11.6761
▁1568	-11.6761
▁157006	-11.6761
▁1581	-11.6761
▁1598	-11.6761
▁1606	-11.6761
▁16495	-11.6761
▁165	-11.6761
▁166026	-11.6761
▁166523	-11.6761
▁166989	-11.6761
▁1694	-11.6761
▁170133	-11.6761
▁1801	-11.6761
▁185	-11.6761
▁192	-11.6761
▁197	-11.6761
▁1970	-11.6761
▁1991	-11.6761
▁20032	-11.6761
▁20046	-11.6761
▁20055	-11.6761
▁20167	-11.6761
▁20208	-11.6761
▁20502	-11.6761
▁20606100	-11.6761
▁2063	-11.6761
▁208083	-11.6761
▁214948	-11.6761
▁217	-11.6761
▁21964	-11.6761
▁22600	-11.6761
▁22700	-11.6761
▁231	-11.6761
▁2400	-11.6761
▁240061	-11.6761
▁2416	-11.6761
▁245	-11.6761
▁262	-11.6761
▁263	-11.6761
▁266962	-11.6761
▁266970	-11.6761
▁267	-11.6761
▁2745	-11.6761
▁276	-11.6761
▁278	-11.6761
▁2799	-11.6761
▁290	-11.6761
▁2911	-11.6761
▁292	-11.6761
▁293	-11.6761
▁295	-11.6761
▁30000	-11.6761
▁30202	-11.6761
▁30369	-11.6761
▁30394	-11.6761
▁3042	-11.6761
▁30523	-11.6761
▁30569	-11.6761
▁30599	-11.6761
▁308	-11.6761
▁30978	-11.6761
▁310	-11.6761
▁3143	-11.6761
▁31539	-11.6761
▁318052	-11.6761
▁3212	-11.6761
▁325	-11.6761
▁331	-11.6761
▁332	-11.6761
▁33721192	-11.6761
▁3407	-11.6761
▁34523	-11.6761
▁3490	-11.6761
▁351	-11.6761
▁3533	-11.6761
▁3536	-11.6761
▁35465	-11.6761
▁35615	-11.6761
▁357	-11.6761
▁360	-11.6761
▁36000	-11.6761
▁361	-11.6761
▁3658	-11.6761
▁36629	-11.6761
▁36759	-11.6761
▁36982	-11.6761
▁376	-11.6761
▁379	-11.6761
▁379424	-11.6761
▁380	-11.6761
▁380710	-11.6761
▁384237	-11.6761
▁394489	-11.6761
▁396	-11.6761
▁39647	-11.6761
▁39702	-11.6761
▁399	-11.6761
▁40040	-11.6761
▁40400	-11.6761
▁40408	-11.6761
▁40547	-11.6761
▁412	-11.6761
▁418	-11.6761
▁421415	-11.6761
▁421856	-11.6761
▁435	-11.6761
▁441	-11.6761
▁4500	-11.6761
▁454057	-11.6761
▁4585	-11.6761
▁4594	-11.6761
▁4610	-11.6761
▁4656	-11.6761
▁4665	-11.6761
▁4723	-11.6761
▁476	-11.6761
▁481	-11.6761
▁4965	-11.6761
▁50000	-11.6761
▁501026	-11.6761
▁502	-11.6761
▁5031	-11.6761
▁5041	-11.6761
▁5042	-11.6761
▁5053	-11.6761
▁506	-11.6761
▁506192	-11.6761
▁5097	-11.6761
▁5127	-11.6761
▁515	-11.6761
▁515136	-11.6761
▁51645	-11.6761
▁537	-11.6761
▁542	-11.6761
▁553	-11.6761
▁5538	-11.6761
▁554	-11.6761
▁559	-11.6761
▁5652	-11.6761
▁570	-11.6761
▁57531	-11.6761
▁586954	-11.6761
▁589257	-11.6761
▁593	-11.6761
▁6009	-11.6761
▁606	-11.6761
▁6101	-11.6761
▁611	-11.6761
▁613	-11.6761
▁619	-11.6761
▁621	-11.6761
▁631	-11.6761
▁632	-11.6761
▁634075	-11.6761
▁637225	-11.6761
▁6392	-11.6761
▁6400	-11.6761
▁640685	-11.6761
▁6463	-11.6761
▁649741	-11.6761
▁6519	-11.6761
▁655	-11.6761
▁6563	-11.6761
▁6578	-11.6761
▁659998	-11.6761
▁6603	-11.6761
▁6615	-11.6761
▁6674	-11.6761
▁6709	-11.6761
▁674	-11.6761
▁6789	-11.6761
▁679847	-11.6761
▁679848	-11.6761
▁680	-11.6761
▁6815	-11.6761
▁683	-11.6761
▁6831	-11.6761
▁6835	-11.6761
▁689	-11.6761
▁690	-11.6761
▁696	-11.6761
▁7000	-11.6761
▁7049	-11.6761
▁709	-11.6761
▁709296	-11.6761
▁7100	-11.6761
▁7118	-11.6761
▁725391	-11.6761
▁7268	-11.6761
▁729	-11.6761
▁730	-11.6761
▁736	-11.6761
▁7400	-11.6761
▁752	-11.6761
▁757	-11.6761
▁76031	-11.6761
▁773	-11.6761
▁77339	-11.6761
▁774	-11.6761
▁7754	-11.6761
▁776	-11.6761
▁780	-11.6761
▁78032	-11.6761
▁78033	-11.6761
▁788	-11.6761
▁80000	-11.6761
▁804	-11.6761
▁805	-11.6761
▁80705	-11.6761
▁808	-11.6761
▁813	-11.6761
▁814	-11.6761
▁815	-11.6761
▁816	-11.6761
▁819	-11.6761
▁819592	-11.6761
▁825	-11.6761
▁8326	-11.6761
▁8329	-11.6761
▁834	-11.6761
▁839	-11.6761
▁843	-11.6761
▁8434	-11.6761
▁846	-11.6761
▁8484	-11.6761
▁854688	-11.6761
▁856	-11.6761
▁859	-11.6761
▁863	-11.6761
▁867	-11.6761
▁868	-11.6761
▁871184	-11.6761
▁87426	-11.6761
▁880	-11.6761
▁886915596469801750	-11.6761
▁899	-11.6761
▁9000	-11.6761
▁90011947	-11.6761
▁908	-11.6761
▁9100	-11.6761
▁915	-11.6761
▁9167	-11.6761
▁9180	-11.6761
▁928	-11.6761
▁929	-11.6761
▁93481	-11.6761
▁93487	-11.6761
▁939	-11.6761
▁94120	-11.6761
▁95072	-11.6761
▁9536	-11.6761
▁95912	-11.6761
▁96016959	-11.6761
▁96029143	-11.6761
▁96029302	-11.6761
▁96029892	-11.6761
▁96037402	-11.6761
▁96047295	-11.6761
▁96057368	-11.6761
▁9667	-11.6761
▁9686	-11.6761
▁9687	-11.6761
▁9699	-11.6761
▁970	-11.6761
▁9746	-11.6761
▁9769	-11.6761
▁980072	-11.6761
▁9801071	-11.6761
▁981266	-11.6761
▁9813	-11.6761
▁981373	-11.6761
▁981459	-11.6761
▁9830	-11.6761
▁9836	-11.6761
▁985892	-11.6761
▁9859	-11.6761
▁986296	-11.6761
▁986725	-11.6761
▁986764	-11.6761
▁986782	-11.6761
▁9878	-11.6761
▁9879	-11.6761
▁9885	-11.6761
▁989	-11.6761
▁989603	-11.6761
▁989807	-11.6761
▁abbas	-11.6761
▁abbot	-11.6761
▁abbott	-11.6761
▁abetting	-11.6761
▁abort	-11.6761
▁abr	-11.6761
▁abraham	-11.6761
▁absent	-11.6761
▁absorbed	-11.6761
▁absorbent	-11.6761
▁abstract	-11.6761
▁academe	-11.6761
▁academician	-11.6761
▁acc	-11.6761
▁accelerated	-11.6761
▁accent	-11.6761
▁accident	-11.6761
▁accompany	-11.6761
▁accord	-11.6761
▁accountability	-11.6761
▁accredited	-11.6761
▁accrued	-11.6761
▁acctg	-11.6761
▁accusatory	-11.6761
▁accuse	-11.6761
▁ache	-11.6761
▁achieved	-11.6761
▁achromatic	-11.6761
▁acidulous	-11.6761
▁acrimony	-11.6761
▁acrylate	-11.6761
▁actinic	-11.6761
▁activation	-11.6761
▁actor	-11.6761
▁actualize	-11.6761
▁adbfaksaqw	-11.6761
▁addison	-11.6761
▁addressing	-11.6761
▁adenoma	-11.6761
▁adjusting	-11.6761
▁adjutant	-11.6761
▁adler	-11.6761
▁adlpex	-11.6761
▁admiration	-11.6761
▁admitted	-11.6761
▁ado	-11.6761
▁adolph	-11.6761
▁adopt	-11.6761
▁adress	-11.6761
▁adrian	-11.6761
▁advancing	-11.6761
▁adverb	-11.6761
▁advertise	-11.6761
▁advocate	-11.6761
▁aerofoammetals	-11.6761
▁aeronautic	-11.6761
▁affection	-11.6761
▁affidavit	-11.6761
▁affiiiate	-11.6761
▁affirmative	-11.6761
▁affluence	-11.6761
▁afforest	-11.6761
▁afterthought	-11.6761
▁agaln	-11.6761
▁aggragate	-11.6761
▁agnew	-11.6761
▁agreeable	-11.6761
▁agrra	-11.6761
▁aida	-11.6761
▁aiken	-11.6761
▁ailment	-11.6761
▁ainu	-11.6761
▁aione	-11.6761
▁airborne	-11.6761
▁aire	-11.6761
▁airlock	-11.6761
▁airway	-11.6761
▁aitken	-11.6761
▁ajax	-11.6761
▁alabaster	-11.6761
▁alb	-11.6761
▁albatross	-11.6761
▁albert	-11.6761
▁alexis	-11.6761
▁alexus	-11.6761
▁alga	-11.6761
▁alia	-11.6761
▁alicia	-11.6761
▁alike	-11.6761
▁alink	-11.6761
▁aliquot	-11.6761
▁alistair	-11.6761
▁aliuum	-11.6761
▁allah	-11.6761
▁allemand	-11.6761
▁allied	-11.6761
▁allotropic	-11.6761
▁allotting	-11.6761
▁almagest	-11.6761
▁aloft	-11.6761
▁aloha	-11.6761
▁alpha	-11.6761
▁alsatian	-11.6761
▁alter	-11.6761
▁alterate	-11.6761
▁alteration	-11.6761
▁alternate	-11.6761
▁alumina	-11.6761
▁aluminum	-11.6761
▁alvarez	-11.6761
▁alyssum	-11.6761
▁amanda	-11.6761
▁amanita	-11.6761
▁amarillo	-11.6761
▁amber	-11.6761
▁ambieen	-11.6761
▁ambl	-11.6761
▁ambrose	-11.6761
▁ambrosial	-11.6761
▁ambulatory	-11.6761
▁amelie	-11.6761
▁amend	-11.6761
▁amende	-11.6761
▁amino	-11.6761
▁amiss	-11.6761
▁amongst	-11.6761
▁amphetamine	-11.6761
▁amphibious	-11.6761
▁amphibole	-11.6761
▁amt	-11.6761
▁amtels	-11.6761
▁amtrak	-11.6761
▁amulet	-11.6761
▁amusing	-11.6761
▁ana	-11.6761
▁ancestry	-11.6761
▁anchor	-11.6761
▁angola	-11.6761
▁angry	-11.6761
▁anguish	-11.6761
▁aninherent	-11.6761
▁annalen	-11.6761
▁annals	-11.6761
▁anodic	-11.6761
▁anomaly	-11.6761
▁anonymously	-11.6761
▁ansi	-11.6761
▁antares	-11.6761
▁anteater	-11.6761
▁anthem	-11.6761
▁anthracnose	-11.6761
▁antigorite	-11.6761
▁antisemite	-11.6761
▁antithetic	-11.6761
▁aphelion	-11.6761
▁apocalyptic	-11.6761
▁apollo	-11.6761
▁apotheosis	-11.6761
▁appalachia	-11.6761
▁appeal	-11.6761
▁appeasable	-11.6761
▁apportion	-11.6761
▁apppears	-11.6761
▁apprise	-11.6761
▁apprised	-11.6761
▁approached	-11.6761
▁approaching	-11.6761
▁arbiter	-11.6761
▁arbitrary	-11.6761
▁arcadia	-11.6761
▁arcanum	-11.6761
▁arccos	-11.6761
▁archaic	-11.6761
▁arching	-11.6761
▁arclength	-11.6761
▁arctic	-11.6761
▁ard	-11.6761
▁arge	-11.6761
▁arguing	-11.6761
▁argumentation	-11.6761
▁arisen	-11.6761
▁arising	-11.6761
▁aristocrat	-11.6761
▁arkansan	-11.6761
▁armageddon	-11.6761
▁aroma	-11.6761
▁arrack	-11.6761
▁arraign	-11.6761
▁arriving	-11.6761
▁arrogant	-11.6761
▁artauction	-11.6761
▁artichoke	-11.6761
▁artist	-11.6761
▁artiste	-11.6761
▁aseptic	-11.6761
▁ashamed	-11.6761
▁asian	-11.6761
▁askew	-11.6761
▁asperity	-11.6761
▁asphyxiate	-11.6761
▁aspirate	-11.6761
▁aspirin	-11.6761
▁assassinate	-11.6761
▁assortment	-11.6761
▁asst	-11.6761
▁assyria	-11.6761
▁astarte	-11.6761
▁astigmat	-11.6761
▁astonish	-11.6761
▁astra	-11.6761
▁astronomic	-11.6761
▁athabascan	-11.6761
▁atlantes	-11.6761
▁atp	-11.6761
▁attachement	-11.6761
▁attaching	-11.6761
▁attracts	-11.6761
▁au	-11.6761
▁aubrey	-11.6761
▁aucoin	-11.6761
▁audubon	-11.6761
▁authentic	-11.6761
▁autocorrelate	-11.6761
▁autohedge	-11.6761
▁automobile	-11.6761
▁auxiliary	-11.6761
▁availabilty	-11.6761
▁avcp	-11.6761
▁averaging	-11.6761
▁avery	-11.6761
▁avi	-11.6761
▁awed	-11.6761
▁axlet	-11.6761
▁axon	-11.6761
▁babysat	-11.6761
▁bac	-11.6761
▁backing	-11.6761
▁backpack	-11.6761
▁backscatter	-11.6761
▁bail	-11.6761
▁bakelite	-11.6761
▁balboa	-11.6761
▁baldwin	-11.6761
▁balustrade	-11.6761
▁bambi	-11.6761
▁banana	-11.6761
▁bangladesh	-11.6761
▁banish	-11.6761
▁bantam	-11.6761
▁baptist	-11.6761
▁baptiste	-11.6761
▁barbados	-11.6761
▁barclay	-11.6761
▁barn	-11.6761
▁baroque	-11.6761
▁barrow	-11.6761
▁bart	-11.6761
▁baseband	-11.6761
▁baseboard	-11.6761
▁basel	-11.6761
▁basheer	-11.6761
▁basilar	-11.6761
▁bast	-11.6761
▁batavian	-11.6761
▁bathroom	-11.6761
▁battalion	-11.6761
▁battleground	-11.6761
▁baune	-11.6761
▁baylor	-11.6761
▁bcp	-11.6761
▁beachcomb	-11.6761
▁beagon	-11.6761
▁beamont	-11.6761
▁bean	-11.6761
▁beauregard	-11.6761
▁beauteous	-11.6761
▁becker	-11.6761
▁bedside	-11.6761
▁bedspread	-11.6761
▁beebe	-11.6761
▁beetle	-11.6761
▁befit	-11.6761
▁behave	-11.6761
▁beheld	-11.6761
▁behest	-11.6761
▁beirut	-11.6761
▁beleives	-11.6761
▁bellman	-11.6761
▁bellow	-11.6761
▁bema	-11.6761
▁beneficl	-11.6761
▁beng	-11.6761
▁bereft	-11.6761
▁bernice	-11.6761
▁bernoulli	-11.6761
▁bernstein	-11.6761
▁berra	-11.6761
▁beside	-11.6761
▁bestir	-11.6761
▁bestowal	-11.6761
▁bestubble	-11.6761
▁betelgeuse	-11.6761
▁betsy	-11.6761
▁bezel	-11.6761
▁bialystok	-11.6761
▁biaxial	-11.6761
▁bib	-11.6761
▁bidirectional	-11.6761
▁bijouterie	-11.6761
▁bike	-11.6761
▁bilberry	-11.6761
▁biliion	-11.6761
▁bilingual	-11.6761
▁billingsly	-11.6761
▁bingham	-11.6761
▁biomedical	-11.6761
▁biotech	-11.6761
▁birdseed	-11.6761
▁birthplace	-11.6761
▁bishop	-11.6761
▁bisque	-11.6761
▁blackbird	-11.6761
▁blackboard	-11.6761
▁blacked	-11.6761
▁bladder	-11.6761
▁blah	-11.6761
▁blame	-11.6761
▁blanch	-11.6761
▁blend	-11.6761
▁blister	-11.6761
▁bll	-11.6761
▁bloomington	-11.6761
▁blowing	-11.6761
▁bluebird	-11.6761
▁blur	-11.6761
▁blush	-11.6761
▁bmar	-11.6761
▁bobcat	-11.6761
▁bock	-11.6761
▁boeotian	-11.6761
▁bog	-11.6761
▁bogey	-11.6761
▁bolshevist	-11.6761
▁bondage	-11.6761
▁bonfire	-11.6761
▁bong	-11.6761
▁bonneville	-11.6761
▁boo	-11.6761
▁bookcase	-11.6761
▁boosting	-11.6761
▁boot	-11.6761
▁bootlegged	-11.6761
▁borax	-11.6761
▁boston	-11.6761
▁bothersome	-11.6761
▁boxing	-11.6761
▁boyfriend	-11.6761
▁boyt	-11.6761
▁bpd	-11.6761
▁brace	-11.6761
▁bracelet	-11.6761
▁bradshaw	-11.6761
▁bragg	-11.6761
▁brahmsian	-11.6761
▁brainchild	-11.6761
▁brandi	-11.6761
▁brass	-11.6761
▁brazzaville	-11.6761
▁breadth	-11.6761
▁breath	-11.6761
▁breaux	-11.6761
▁bremsstrahlung	-11.6761
▁brenham	-11.6761
▁bretail	-11.6761
▁brex	-11.6761
▁briefcase	-11.6761
▁brigham	-11.6761
▁briscoe	-11.6761
▁britannic	-11.6761
▁briton	-11.6761
▁broadcast	-11.6761
▁brokerage	-11.6761
▁bronco	-11.6761
▁bronzy	-11.6761
▁brookhaven	-11.6761
▁bruni	-11.6761
▁bubba	-11.6761
▁buckboard	-11.6761
▁bucknell	-11.6761
▁buckshot	-11.6761
▁buckwheat	-11.6761
▁buddhism	-11.6761
▁buff	-11.6761
▁buffet	-11.6761
▁buil	-11.6761
▁bullfrog	-11.6761
▁bum	-11.6761
▁bumptious	-11.6761
▁buoy	-11.6761
▁burden	-11.6761
▁burdensome	-11.6761
▁bureau	-11.6761
▁bureaucratic	-11.6761
▁burgeon	-11.6761
▁burgundy	-11.6761
▁burner	-11.6761
▁burp	-11.6761
▁burt	-11.6761
▁bust	-11.6761
▁butt	-11.6761
▁butte	-11.6761
▁buttress	-11.6761
▁buxton	-11.6761
▁bvgari	-11.6761
▁byington	-11.6761
▁byte	-11.6761
▁cabie	-11.6761
▁cacophony	-11.6761
▁cahoot	-11.6761
▁cail	-11.6761
▁calcite	-11.6761
▁calculates	-11.6761
▁calme	-11.6761
▁camilla	-11.6761
▁campanile	-11.6761
▁campbell	-11.6761
▁can	-11.6761
▁cancerous	-11.6761
▁candide	-11.6761
▁candlewick	-11.6761
▁cannister	-11.6761
▁canny	-11.6761
▁canoe	-11.6761
▁capitalized	-11.6761
▁capitoline	-11.6761
▁capitulate	-11.6761
▁captain	-11.6761
▁capturing	-11.6761
▁caput	-11.6761
▁caramel	-11.6761
▁carbondale	-11.6761
▁carboxylic	-11.6761
▁cardioid	-11.6761
▁carfare	-11.6761
▁carib	-11.6761
▁carmen	-11.6761
▁carnal	-11.6761
▁carrington	-11.6761
▁carroll	-11.6761
▁catapult	-11.6761
▁catching	-11.6761
▁cation	-11.6761
▁cattleman	-11.6761
▁cauliflower	-11.6761
▁causation	-11.6761
▁caustic	-11.6761
▁cautionary	-11.6761
▁cavern	-11.6761
▁cayanosa	-11.6761
▁cayuga	-11.6761
▁cbn	-11.6761
▁ced	-11.6761
▁celeron	-11.6761
▁cellar	-11.6761
▁cellulite	-11.6761
▁centena	-11.6761
▁centerbfont	-11.6761
▁centerimg	-11.6761
▁centralized	-11.6761
▁centrex	-11.6761
▁century	-11.6761
▁certiorari	-11.6761
▁cfo	-11.6761
▁chalkline	-11.6761
▁chandelier	-11.6761
▁changeover	-11.6761
▁chantey	-11.6761
▁chapel	-11.6761
▁chaperon	-11.6761
▁charley	-11.6761
▁charlottesville	-11.6761
▁chastity	-11.6761
▁chatham	-11.6761
▁cheat	-11.6761
▁checkbook	-11.6761
▁chiffon	-11.6761
▁chigger	-11.6761
▁childbear	-11.6761
▁chile	-11.6761
▁chill	-11.6761
▁chimique	-11.6761
▁cholera	-11.6761
▁chopin	-11.6761
▁chortle	-11.6761
▁chronoswiss	-11.6761
▁chuff	-11.6761
▁chug	-11.6761
▁churn	-11.6761
▁ciaaliis	-11.6761
▁cilium	-11.6761
▁cima	-11.6761
▁cinch	-11.6761
▁circuiation	-11.6761
▁circumferential	-11.6761
▁circumlocution	-11.6761
▁circumscribe	-11.6761
▁circumspect	-11.6761
▁cistern	-11.6761
▁cit	-11.6761
▁citrate	-11.6761
▁citron	-11.6761
▁clammy	-11.6761
▁clamp	-11.6761
▁clara	-11.6761
▁clare	-11.6761
▁claremont	-11.6761
▁classificatory	-11.6761
▁classy	-11.6761
▁clatter	-11.6761
▁claude	-11.6761
▁claus	-11.6761
▁clayton	-11.6761
▁cleft	-11.6761
▁climb	-11.6761
▁clinical	-11.6761
▁clitoris	-11.6761
▁cllck	-11.6761
▁cllick	-11.6761
▁cloakroom	-11.6761
▁closeup	-11.6761
▁cloudburst	-11.6761
▁cluster	-11.6761
▁coachwork	-11.6761
▁coad	-11.6761
▁coates	-11.6761
▁cobalt	-11.6761
▁cocktail	-11.6761
▁codebreak	-11.6761
▁codeinne	-11.6761
▁codfish	-11.6761
▁codify	-11.6761
▁coding	-11.6761
▁coeditor	-11.6761
▁coffee	-11.6761
▁coincide	-11.6761
▁collaboration	-11.6761
▁collage	-11.6761
▁collapse	-11.6761
▁collard	-11.6761
▁collectively	-11.6761
▁colloquy	-11.6761
▁colonel	-11.6761
▁colonial	-11.6761
▁colonist	-11.6761
▁colosseum	-11.6761
▁comcast	-11.6761
▁comet	-11.6761
▁commendatory	-11.6761
▁communicant	-11.6761
▁commute	-11.6761
▁compatabile	-11.6761
▁compatibility	-11.6761
▁compet	-11.6761
▁compiete	-11.6761
▁complement	-11.6761
▁complementation	-11.6761
▁complies	-11.6761
▁compline	-11.6761
▁componentry	-11.6761
▁comprise	-11.6761
▁comprises	-11.6761
▁compromise	-11.6761
▁comrade	-11.6761
▁comtex	-11.6761
▁concentrate	-11.6761
▁concert	-11.6761
▁concessionaire	-11.6761
▁conclave	-11.6761
▁concordant	-11.6761
▁concur	-11.6761
▁condense	-11.6761
▁conductance	-11.6761
▁confer	-11.6761
▁confidante	-11.6761
▁configurable	-11.6761
▁configuration	-11.6761
▁confiict	-11.6761
▁confldential	-11.6761
▁conforms	-11.6761
▁congestion	-11.6761
▁congressman	-11.6761
▁congresswoman	-11.6761
▁conjuncture	-11.6761
▁conn	-11.6761
▁connecting	-11.6761
▁connoisseur	-11.6761
▁conroe	-11.6761
▁conscription	-11.6761
▁consensual	-11.6761
▁consented	-11.6761
▁consequential	-11.6761
▁conservatism	-11.6761
▁conservatory	-11.6761
▁consolation	-11.6761
▁constantin	-11.6761
▁constitutive	-11.6761
▁constrain	-11.6761
▁constrained	-11.6761
▁contemplated	-11.6761
▁contend	-11.6761
▁continuo	-11.6761
▁contracting	-11.6761
▁controllable	-11.6761
▁controlling	-11.6761
▁convair	-11.6761
▁convene	-11.6761
▁convergent	-11.6761
▁converse	-11.6761
▁cookbook	-11.6761
▁cooper	-11.6761
▁coordianting	-11.6761
▁copenhagen	-11.6761
▁copious	-11.6761
▁cord	-11.6761
▁cordial	-11.6761
▁corey	-11.6761
▁cornelius	-11.6761
▁cornshucker	-11.6761
▁corollary	-11.6761
▁corpse	-11.6761
▁corridor	-11.6761
▁corset	-11.6761
▁cortizyte	-11.6761
▁cory	-11.6761
▁coset	-11.6761
▁cossack	-11.6761
▁costa	-11.6761
▁cottonseed	-11.6761
▁cotty	-11.6761
▁council	-11.6761
▁counseling	-11.6761
▁courtroom	-11.6761
▁coventry	-11.6761
▁coverall	-11.6761
▁covet	-11.6761
▁cowman	-11.6761
▁coworker	-11.6761
▁coxcomb	-11.6761
▁cozy	-11.6761
▁cpu	-11.6761
▁cracked	-11.6761
▁cracker	-11.6761
▁cramer	-11.6761
▁cranberry	-11.6761
▁crankcase	-11.6761
▁crawfish	-11.6761
▁creates	-11.6761
▁creativity	-11.6761
▁cried	-11.6761
▁crispin	-11.6761
▁criterion	-11.6761
▁critique	-11.6761
▁crk	-11.6761
▁crossbar	-11.6761
▁cruelty	-11.6761
▁crusade	-11.6761
▁crusty	-11.6761
▁ctg	-11.6761
▁ctor	-11.6761
▁cty	-11.6761
▁cue	-11.6761
▁cufflink	-11.6761
▁cum	-11.6761
▁curfew	-11.6761
▁curran	-11.6761
▁cutesy	-11.6761
▁cutoff	-11.6761
▁cyanide	-11.6761
▁cylinder	-11.6761
▁cynic	-11.6761
▁cypress	-11.6761
▁cyprian	-11.6761
▁cyrillic	-11.6761
▁czech	-11.6761
▁dactylic	-11.6761
▁dade	-11.6761
▁dairylea	-11.6761
▁dairyman	-11.6761
▁dalzell	-11.6761
▁damascus	-11.6761
▁danish	-11.6761
▁datenicegirl	-11.6761
▁davenport	-11.6761
▁dawson	-11.6761
▁daylight	-11.6761
▁dbq	-11.6761
▁ddr	-11.6761
▁deaconess	-11.6761
▁deadhead	-11.6761
▁deadlock	-11.6761
▁deadly	-11.6761
▁deane	-11.6761
▁debarring	-11.6761
▁deborah	-11.6761
▁debugged	-11.6761
▁deception	-11.6761
▁deck	-11.6761
▁decker	-11.6761
▁declaratory	-11.6761
▁declivity	-11.6761
▁decompile	-11.6761
▁decontrol	-11.6761
▁decorum	-11.6761
▁deemphasize	-11.6761
▁defeat	-11.6761
▁defender	-11.6761
▁defensible	-11.6761
▁deficienty	-11.6761
▁defocus	-11.6761
▁deine	-11.6761
▁deinetol	-11.6761
▁dejesus	-11.6761
▁delia	-11.6761
▁delicti	-11.6761
▁deloitte	-11.6761
▁delphinus	-11.6761
▁demerit	-11.6761
▁democrat	-11.6761
▁democratic	-11.6761
▁demon	-11.6761
▁dempsey	-11.6761
▁demurrage	-11.6761
▁denetsosie	-11.6761
▁density	-11.6761
▁dent	-11.6761
▁denumerable	-11.6761
▁deoxyribonucleic	-11.6761
▁departs	-11.6761
▁deployed	-11.6761
▁depot	-11.6761
▁depredate	-11.6761
▁depress	-11.6761
▁derail	-11.6761
▁dereference	-11.6761
▁deride	-11.6761
▁derived	-11.6761
▁derogatory	-11.6761
▁dervish	-11.6761
▁desert	-11.6761
▁deserves	-11.6761
▁designate	-11.6761
▁designation	-11.6761
▁desmond	-11.6761
▁despite	-11.6761
▁despond	-11.6761
▁despot	-11.6761
▁detected	-11.6761
▁detergent	-11.6761
▁deutsch	-11.6761
▁deveiop	-11.6761
▁deveioper	-11.6761
▁devote	-11.6761
▁dewbre	-11.6761
▁dexter	-11.6761
▁dexterity	-11.6761
▁dgraf	-11.6761
▁dheineke	-11.6761
▁diagnosis	-11.6761
▁diagonal	-11.6761
▁diagram	-11.6761
▁dickenson	-11.6761
▁dicotyledon	-11.6761
▁didactic	-11.6761
▁differentiate	-11.6761
▁diffract	-11.6761
▁dig	-11.6761
▁dihedral	-11.6761
▁dilute	-11.6761
▁diplomatic	-11.6761
▁disabled	-11.6761
▁disappointment	-11.6761
▁disclosed	-11.6761
▁discoid	-11.6761
▁discon	-11.6761
▁disney	-11.6761
▁disperse	-11.6761
▁disputing	-11.6761
▁disqualification	-11.6761
▁disqualified	-11.6761
▁dissolvable	-11.6761
▁dissonant	-11.6761
▁distaff	-11.6761
▁distillate	-11.6761
▁distorted	-11.6761
▁dkny	-11.6761
▁dlscreet	-11.6761
▁dmxp	-11.6761
▁doberman	-11.6761
▁docket	-11.6761
▁documentaire	-11.6761
▁dodge	-11.6761
▁dolan	-11.6761
▁doleful	-11.6761
▁dollop	-11.6761
▁dolpin	-11.6761
▁domenico	-11.6761
▁domino	-11.6761
▁donahue	-11.6761
▁donor	-11.6761
▁doom	-11.6761
▁dopant	-11.6761
▁dorado	-11.6761
▁douse	-11.6761
▁downing	-11.6761
▁drab	-11.6761
▁dragging	-11.6761
▁dreadnought	-11.6761
▁dreamer	-11.6761
▁dredge	-11.6761
▁dresner	-11.6761
▁droopy	-11.6761
▁drummond	-11.6761
▁dscoppin	-11.6761
▁dservl	-11.6761
▁dubbed	-11.6761
▁dublin	-11.6761
▁dubuis	-11.6761
▁duct	-11.6761
▁dump	-11.6761
▁dune	-11.6761
▁duplicable	-11.6761
▁duran	-11.6761
▁durango	-11.6761
▁dusenbury	-11.6761
▁dutiful	-11.6761
▁dutton	-11.6761
▁dwyer	-11.6761
▁dyke	-11.6761
▁dynamite	-11.6761
▁dysentery	-11.6761
▁dystrophy	-11.6761
▁earmark	-11.6761
▁eating	-11.6761
▁ebel	-11.6761
▁eben	-11.6761
▁ebl	-11.6761
▁eccles	-11.6761
▁eclogue	-11.6761
▁economical	-11.6761
▁economise	-11.6761
▁edinburgh	-11.6761
▁efficacious	-11.6761
▁efm	-11.6761
▁efworldexpo	-11.6761
▁egp	-11.6761
▁eiectronic	-11.6761
▁eine	-11.6761
▁elba	-11.6761
▁elder	-11.6761
▁electromagnetic	-11.6761
▁elegy	-11.6761
▁elevator	-11.6761
▁elijah	-11.6761
▁eliminated	-11.6761
▁elixir	-11.6761
▁ellipsis	-11.6761
▁ellwood	-11.6761
▁elmsford	-11.6761
▁elr	-11.6761
▁elution	-11.6761
▁emailed	-11.6761
▁embarrass	-11.6761
▁embed	-11.6761
▁ember	-11.6761
▁embrittle	-11.6761
▁emerge	-11.6761
▁emil	-11.6761
▁emmett	-11.6761
▁employ	-11.6761
▁encomium	-11.6761
▁encouraging	-11.6761
▁encrypt	-11.6761
▁encrypted	-11.6761
▁endless	-11.6761
▁ene	-11.6761
▁eneric	-11.6761
▁engaged	-11.6761
▁engineering	-11.6761
▁engr	-11.6761
▁enl	-11.6761
▁enom	-11.6761
▁enroncredit	-11.6761
▁entail	-11.6761
▁entertaining	-11.6761
▁enthusiasm	-11.6761
▁entrepreneur	-11.6761
▁environmentally	-11.6761
▁ephraim	-11.6761
▁epp	-11.6761
▁equiv	-11.6761
▁erbium	-11.6761
▁erda	-11.6761
▁erect	-11.6761
▁ergon	-11.6761
▁erik	-11.6761
▁erlc	-11.6761
▁ermis	-11.6761
▁errant	-11.6761
▁erroneous	-11.6761
▁erskine	-11.6761
▁esa	-11.6761
▁escadrille	-11.6761
▁escalation	-11.6761
▁escape	-11.6761
▁escapee	-11.6761
▁esmtp	-11.6761
▁estabiished	-11.6761
▁eternal	-11.6761
▁etgs	-11.6761
▁etoco	-11.6761
▁etter	-11.6761
▁eva	-11.6761
▁eventual	-11.6761
▁everett	-11.6761
▁everhart	-11.6761
▁excavate	-11.6761
▁excellence	-11.6761
▁excluded	-11.6761
▁exemplify	-11.6761
▁exhibitor	-11.6761
▁exorcise	-11.6761
▁expediting	-11.6761
▁expiode	-11.6761
▁expiring	-11.6761
▁expl	-11.6761
▁explanatory	-11.6761
▁explor	-11.6761
▁expose	-11.6761
▁expressing	-11.6761
▁expressly	-11.6761
▁expunge	-11.6761
▁extenuate	-11.6761
▁extolling	-11.6761
▁extract	-11.6761
▁extracted	-11.6761
▁extraordinary	-11.6761
▁extreme	-11.6761
▁exxonkaty	-11.6761
▁fable	-11.6761
▁faced	-11.6761
▁facilitation	-11.6761
▁facing	-11.6761
▁faint	-11.6761
▁faire	-11.6761
▁falfurrias	-11.6761
▁fallon	-11.6761
▁fangming	-11.6761
▁faretracker	-11.6761
▁farfetched	-11.6761
▁fargo	-11.6761
▁fault	-11.6761
▁favourite	-11.6761
▁faxmodem	-11.6761
▁fcc	-11.6761
▁fcdh	-11.6761
▁featherweight	-11.6761
▁febo	-11.6761
▁federa	-11.6761
▁fella	-11.6761
▁fermat	-11.6761
▁ferret	-11.6761
▁fers	-11.6761
▁fever	-11.6761
▁fiction	-11.6761
▁filmdom	-11.6761
▁filtering	-11.6761
▁fin	-11.6761
▁finalist	-11.6761
▁findest	-11.6761
▁finest	-11.6761
▁finger	-11.6761
▁finishing	-11.6761
▁finnegan	-11.6761
▁fireball	-11.6761
▁firstcall	-11.6761
▁fisticuff	-11.6761
▁fitch	-11.6761
▁fka	-11.6761
▁flannigan	-11.6761
▁flashy	-11.6761
▁flaw	-11.6761
▁flea	-11.6761
▁fletch	-11.6761
▁flew	-11.6761
▁flower	-11.6761
▁flu	-11.6761
▁flute	-11.6761
▁foamed	-11.6761
▁fof	-11.6761
▁foliage	-11.6761
▁folksy	-11.6761
▁follicular	-11.6761
▁fond	-11.6761
▁fontbrbr	-11.6761
▁fooled	-11.6761
▁footpath	-11.6761
▁forecasting	-11.6761
▁forestry	-11.6761
▁forgetting	-11.6761
▁forgive	-11.6761
▁forgiveness	-11.6761
▁forma	-11.6761
▁forming	-11.6761
▁fourteen	-11.6761
▁foyer	-11.6761
▁frederick	-11.6761
▁freed	-11.6761
▁frequency	-11.6761
▁freshman	-11.6761
▁freud	-11.6761
▁frevert	-11.6761
▁friee	-11.6761
▁frigga	-11.6761
▁fro	-11.6761
▁frog	-11.6761
▁frontline	-11.6761
▁fruehauf	-11.6761
▁fruitless	-11.6761
▁frustrate	-11.6761
▁frustration	-11.6761
▁fulfill	-11.6761
▁fulton	-11.6761
▁fundraise	-11.6761
▁fungoid	-11.6761
▁futureevents	-11.6761
▁fuzzy	-11.6761
▁gaining	-11.6761
▁gallery	-11.6761
▁gallon	-11.6761
▁gang	-11.6761
▁garage	-11.6761
▁garner	-11.6761
▁garnet	-11.6761
▁gasmsgboard	-11.6761
▁gastexas	-11.6761
▁gaston	-11.6761
▁gaze	-11.6761
▁gdprods	-11.6761
▁geared	-11.6761
▁gelatinous	-11.6761
▁gemstone	-11.6761
▁geneva	-11.6761
▁genx	-11.6761
▁geochemical	-11.6761
▁geography	-11.6761
▁geology	-11.6761
▁geophysical	-11.6761
▁germanium	-11.6761
▁getaway	-11.6761
▁ght	-11.6761
▁giantess	-11.6761
▁gibson	-11.6761
▁gilmore	-11.6761
▁girth	-11.6761
▁giveaway	-11.6761
▁gladdy	-11.6761
▁gleason	-11.6761
▁glenn	-11.6761
▁glycine	-11.6761
▁gnu	-11.6761
▁goddess	-11.6761
▁goemsi	-11.6761
▁goldeditor	-11.6761
▁goldman	-11.6761
▁goldstein	-11.6761
▁goofy	-11.6761
▁google	-11.6761
▁goto	-11.6761
▁governer	-11.6761
▁gown	-11.6761
▁gradual	-11.6761
▁grady	-11.6761
▁grandson	-11.6761
▁gratis	-11.6761
▁grayish	-11.6761
▁grayson	-11.6761
▁graywacke	-11.6761
▁greek	-11.6761
▁greenery	-11.6761
▁greenwich	-11.6761
▁gretchen	-11.6761
▁grosbeak	-11.6761
▁groundwork	-11.6761
▁grp	-11.6761
▁gruesen	-11.6761
▁grumble	-11.6761
▁gsf	-11.6761
▁guaaraantees	-11.6761
▁guaaranteeed	-11.6761
▁guilty	-11.6761
▁gully	-11.6761
▁gumbel	-11.6761
▁gunflint	-11.6761
▁gut	-11.6761
▁gym	-11.6761
▁haarder	-11.6761
▁haberman	-11.6761
▁hagelmann	-11.6761
▁haha	-11.6761
▁hal	-11.6761
▁halo	-11.6761
▁handbag	-11.6761
▁handout	-11.6761
▁handwrite	-11.6761
▁handy	-11.6761
▁hanover	-11.6761
▁hardcopy	-11.6761
▁hardin	-11.6761
▁hardness	-11.6761
▁hatred	-11.6761
▁haugen	-11.6761
▁hay	-11.6761
▁haynesboone	-11.6761
▁hdd	-11.6761
▁headquarter	-11.6761
▁heartburn	-11.6761
▁heir	-11.6761
▁helium	-11.6761
▁helvetica	-11.6761
▁henn	-11.6761
▁herb	-11.6761
▁heritage	-11.6761
▁hermetic	-11.6761
▁herr	-11.6761
▁heya	-11.6761
▁highway	-11.6761
▁hijacked	-11.6761
▁hillier	-11.6761
▁hilton	-11.6761
▁hinet	-11.6761
▁hiring	-11.6761
▁hitchcock	-11.6761
▁hobart	-11.6761
▁hoffman	-11.6761
▁hollister	-11.6761
▁homeostasis	-11.6761
▁homeowner	-11.6761
▁homestead	-11.6761
▁homework	-11.6761
▁homicide	-11.6761
▁honeycomb	-11.6761
▁hookup	-11.6761
▁hop	-11.6761
▁hornet	-11.6761
▁hose	-11.6761
▁hostess	-11.6761
▁howell	-11.6761
▁hpng	-11.6761
▁hug	-11.6761
▁humor	-11.6761
▁huneke	-11.6761
▁hungry	-11.6761
▁huntley	-11.6761
▁hurst	-11.6761
▁hyde	-11.6761
▁hymn	-11.6761
▁hyperlink	-11.6761
▁hypocritical	-11.6761
▁hyvl	-11.6761
▁iacute	-11.6761
▁ibrom	-11.6761
▁ide	-11.6761
▁identifies	-11.6761
▁idiosyncrasy	-11.6761
▁ifxh	-11.6761
▁igho	-11.6761
▁ignite	-11.6761
▁ignorant	-11.6761
▁illness	-11.6761
▁illogic	-11.6761
▁ilyushin	-11.6761
▁imageplus	-11.6761
▁impacting	-11.6761
▁imperative	-11.6761
▁implantation	-11.6761
▁importantly	-11.6761
▁impractical	-11.6761
▁improves	-11.6761
▁inappropriate	-11.6761
▁inattention	-11.6761
▁incest	-11.6761
▁incoming	-11.6761
▁incomplete	-11.6761
▁incumbent	-11.6761
▁indeed	-11.6761
▁independently	-11.6761
▁indesign	-11.6761
▁indispensable	-11.6761
▁indistinguishable	-11.6761
▁individua	-11.6761
▁individually	-11.6761
▁indubitable	-11.6761
▁induce	-11.6761
▁industria	-11.6761
▁inextinguishable	-11.6761
▁infant	-11.6761
▁infarct	-11.6761
▁infinity	-11.6761
▁informational	-11.6761
▁ings	-11.6761
▁inhibit	-11.6761
▁inhibitor	-11.6761
▁inorganic	-11.6761
▁inquired	-11.6761
▁inspected	-11.6761
▁insufficient	-11.6761
▁insulin	-11.6761
▁intellect	-11.6761
▁intentionally	-11.6761
▁interaction	-11.6761
▁interdesk	-11.6761
▁interior	-11.6761
▁intern	-11.6761
▁internship	-11.6761
▁interoffice	-11.6761
▁interrupted	-11.6761
▁interval	-11.6761
▁intl	-11.6761
▁intradays	-11.6761
▁intreseted	-11.6761
▁intro	-11.6761
▁intrusion	-11.6761
▁intrusive	-11.6761
▁intuitive	-11.6761
▁invalidated	-11.6761
▁invisible	-11.6761
▁invoiving	-11.6761
▁ionam	-11.6761
▁ipaq	-11.6761
▁ipo	-11.6761
▁iran	-11.6761
▁ireland	-11.6761
▁irishman	-11.6761
▁irm	-11.6761
▁isabella	-11.6761
▁isentropic	-11.6761
▁isocline	-11.6761
▁itc	-11.6761
▁itive	-11.6761
▁jab	-11.6761
▁jacm	-11.6761
▁jaguar	-11.6761
▁janeiro	-11.6761
▁janie	-11.6761
▁janus	-11.6761
▁java	-11.6761
▁javascript	-11.6761
▁jayanta	-11.6761
▁jennie	-11.6761
▁jigging	-11.6761
▁jillian	-11.6761
▁jin	-11.6761
▁jingle	-11.6761
▁jizz	-11.6761
▁joa	-11.6761
▁joinlb	-11.6761
▁jose	-11.6761
▁jpeg	-11.6761
▁julep	-11.6761
▁kadiri	-11.6761
▁kafkaesque	-11.6761
▁kaiser	-11.6761
▁kareem	-11.6761
▁kari	-11.6761
▁kbps	-11.6761
▁kennedywilson	-11.6761
▁kenton	-11.6761
▁kern	-11.6761
▁keynote	-11.6761
▁keystone	-11.6761
▁kgpl	-11.6761
▁kick	-11.6761
▁kidding	-11.6761
▁kidney	-11.6761
▁kindness	-11.6761
▁kiosk	-11.6761
▁knock	-11.6761
▁knowlton	-11.6761
▁knoxville	-11.6761
▁kori	-11.6761
▁kreg	-11.6761
▁kri	-11.6761
▁krueger	-11.6761
▁laboratory	-11.6761
▁lactam	-11.6761
▁lande	-11.6761
▁landon	-11.6761
▁lap	-11.6761
▁lar	-11.6761
▁larryl	-11.6761
▁lassen	-11.6761
▁lastest	-11.6761
▁lawn	-11.6761
▁lax	-11.6761
▁lcr	-11.6761
▁lcra	-11.6761
▁leach	-11.6761
▁lean	-11.6761
▁leapt	-11.6761
▁lec	-11.6761
▁ledet	-11.6761
▁leftover	-11.6761
▁lenchak	-11.6761
▁lengthy	-11.6761
▁leo	-11.6761
▁lessee	-11.6761
▁lien	-11.6761
▁lightning	-11.6761
▁likewise	-11.6761
▁lillian	-11.6761
▁limerick	-11.6761
▁lincoln	-11.6761
▁lindholm	-11.6761
▁linux	-11.6761
▁lion	-11.6761
▁lipscomb	-11.6761
▁lipton	-11.6761
▁lista	-11.6761
▁lit	-11.6761
▁lithic	-11.6761
▁llis	-11.6761
▁lnterest	-11.6761
▁loc	-11.6761
▁locale	-11.6761
▁logan	-11.6761
▁loibl	-11.6761
▁lolita	-11.6761
▁longhorn	-11.6761
▁longview	-11.6761
▁loose	-11.6761
▁lorio	-11.6761
▁lover	-11.6761
▁lowering	-11.6761
▁lowry	-11.6761
▁loyal	-11.6761
▁lpx	-11.6761
▁lubricant	-11.6761
▁lucas	-11.6761
▁lucy	-11.6761
▁lufkin	-11.6761
▁luggage	-11.6761
▁luke	-11.6761
▁luncheon	-11.6761
▁lung	-11.6761
▁lutheran	-11.6761
▁lynx	-11.6761
▁macedonia	-11.6761
▁machinery	-11.6761
▁mackey	-11.6761
▁mackinnon	-11.6761
▁maffett	-11.6761
▁magi	-11.6761
▁magnet	-11.6761
▁magnolia	-11.6761
▁mahoney	-11.6761
▁malaysia	-11.6761
▁malfunction	-11.6761
▁malicious	-11.6761
▁mallak	-11.6761
▁mam	-11.6761
▁mambo	-11.6761
▁mammal	-11.6761
▁mandated	-11.6761
▁mane	-11.6761
▁manufacture	-11.6761
▁margery	-11.6761
▁marginal	-11.6761
▁marigold	-11.6761
▁marketed	-11.6761
▁maroon	-11.6761
▁marty	-11.6761
▁masochism	-11.6761
▁mastery	-11.6761
▁mate	-11.6761
▁mathematician	-11.6761
▁matilda	-11.6761
▁maturity	-11.6761
▁maureen	-11.6761
▁maximilian	-11.6761
▁mba	-11.6761
▁mcclellan	-11.6761
▁mcclendon	-11.6761
▁mccue	-11.6761
▁mclean	-11.6761
▁mcmahon	-11.6761
▁mcmurrey	-11.6761
▁mcpheeters	-11.6761
▁meagan	-11.6761
▁meat	-11.6761
▁medianet	-11.6761
▁medianly	-11.6761
▁medicatlons	-11.6761
▁medlcatlons	-11.6761
▁medssno	-11.6761
▁meedication	-11.6761
▁meetingstop	-11.6761
▁megapixel	-11.6761
▁megaton	-11.6761
▁mei	-11.6761
▁mein	-11.6761
▁melanie	-11.6761
▁melvin	-11.6761
▁meoh	-11.6761
▁mercenary	-11.6761
▁mercier	-11.6761
▁mercy	-11.6761
▁mere	-11.6761
▁mesquite	-11.6761
▁metabolism	-11.6761
▁meteorology	-11.6761
▁metered	-11.6761
▁methane	-11.6761
▁methodology	-11.6761
▁midmonth	-11.6761
▁midspan	-11.6761
▁midtexas	-11.6761
▁midway	-11.6761
▁migraine	-11.6761
▁migrate	-11.6761
▁miiestones	-11.6761
▁mikael	-11.6761
▁mil	-11.6761
▁milan	-11.6761
▁mild	-11.6761
▁milton	-11.6761
▁mimeo	-11.6761
▁miner	-11.6761
▁mingle	-11.6761
▁ministry	-11.6761
▁mir	-11.6761
▁miraculous	-11.6761
▁mirant	-11.6761
▁mirfak	-11.6761
▁miscellaneous	-11.6761
▁mixture	-11.6761
▁mkhenderson	-11.6761
▁mktg	-11.6761
▁mkts	-11.6761
▁mlv	-11.6761
▁mmb	-11.6761
▁mmbut	-11.6761
▁mmccoy	-11.6761
▁mme	-11.6761
▁mob	-11.6761
▁mobiletel	-11.6761
▁modest	-11.6761
▁mokeen	-11.6761
▁monetarist	-11.6761
▁montenegrin	-11.6761
▁monterey	-11.6761
▁moreover	-11.6761
▁morgen	-11.6761
▁moscow	-11.6761
▁mostly	-11.6761
▁motility	-11.6761
▁mov	-11.6761
▁mozart	-11.6761
▁mpg	-11.6761
▁mrut	-11.6761
▁msa	-11.6761
▁mso	-11.6761
▁mueller	-11.6761
▁muitinationa	-11.6761
▁multipliable	-11.6761
▁mundo	-11.6761
▁musk	-11.6761
▁muskellunge	-11.6761
▁mutaz	-11.6761
▁muzzy	-11.6761
▁mzzzzzzz	-11.6761
▁naax	-11.6761
▁naes	-11.6761
▁nanking	-11.6761
▁nasdaq	-11.6761
▁nash	-11.6761
▁nata	-11.6761
▁ndows	-11.6761
▁nearest	-11.6761
▁nebraska	-11.6761
▁ned	-11.6761
▁neeedeed	-11.6761
▁neely	-11.6761
▁neglect	-11.6761
▁netgear	-11.6761
▁netherland	-11.6761
▁neuroanatomy	-11.6761
▁neurology	-11.6761
▁newcomer	-11.6761
▁newer	-11.6761
▁newton	-11.6761
▁ney	-11.6761
▁ng	-11.6761
▁ngpa	-11.6761
▁nica	-11.6761
▁niche	-11.6761
▁nicht	-11.6761
▁nickname	-11.6761
▁nicotine	-11.6761
▁nigas	-11.6761
▁nina	-11.6761
▁njsnoop	-11.6761
▁nkem	-11.6761
▁nobel	-11.6761
▁nomform	-11.6761
▁nomore	-11.6761
▁noo	-11.6761
▁norway	-11.6761
▁notably	-11.6761
▁notifiying	-11.6761
▁notwithstanding	-11.6761
▁nous	-11.6761
▁nowhere	-11.6761
▁nsf	-11.6761
▁nude	-11.6761
▁nudge	-11.6761
▁numeral	-11.6761
▁numerology	-11.6761
▁numismatist	-11.6761
▁nutate	-11.6761
▁nuzzle	-11.6761
▁nya	-11.6761
▁nyc	-11.6761
▁oans	-11.6761
▁oblige	-11.6761
▁obscure	-11.6761
▁observe	-11.6761
▁occasionally	-11.6761
▁occupy	-11.6761
▁occurrence	-11.6761
▁octo	-11.6761
▁oec	-11.6761
▁offended	-11.6761
▁offensive	-11.6761
▁offload	-11.6761
▁offsetting	-11.6761
▁offshoring	-11.6761
▁ofthe	-11.6761
▁ogg	-11.6761
▁ohmic	-11.6761
▁olefin	-11.6761
▁oligarchy	-11.6761
▁olivier	-11.6761
▁olympics	-11.6761
▁oman	-11.6761
▁oneok	-11.6761
▁onward	-11.6761
▁oppenheimer	-11.6761
▁oppose	-11.6761
▁ops	-11.6761
▁optic	-11.6761
▁optl	-11.6761
▁opulent	-11.6761
▁oranjestad	-11.6761
▁oratorical	-11.6761
▁orderbr	-11.6761
▁orderrs	-11.6761
▁organisation	-11.6761
▁ornament	-11.6761
▁ortgage	-11.6761
▁ortiz	-11.6761
▁otis	-11.6761
▁otto	-11.6761
▁ould	-11.6761
▁outbound	-11.6761
▁ove	-11.6761
▁overal	-11.6761
▁overlay	-11.6761
▁overnlght	-11.6761
▁overpaying	-11.6761
▁overtime	-11.6761
▁overweight	-11.6761
▁oxygen	-11.6761
▁pa	-11.6761
▁pacer	-11.6761
▁padding	-11.6761
▁paean	-11.6761
▁pai	-11.6761
▁painful	-11.6761
▁paint	-11.6761
▁paln	-11.6761
▁palpable	-11.6761
▁panama	-11.6761
▁parade	-11.6761
▁paradigm	-11.6761
▁parameter	-11.6761
▁parasite	-11.6761
▁parboil	-11.6761
▁partially	-11.6761
▁passage	-11.6761
▁pathetic	-11.6761
▁pathogen	-11.6761
▁pattern	-11.6761
▁patty	-11.6761
▁paulus	-11.6761
▁pavanne	-11.6761
▁pavilion	-11.6761
▁pdt	-11.6761
▁pediatric	-11.6761
▁peek	-11.6761
▁pendergrass	-11.6761
▁penls	-11.6761
▁pentane	-11.6761
▁perceived	-11.6761
▁perfection	-11.6761
▁performer	-11.6761
▁permitted	-11.6761
▁perpetual	-11.6761
▁perscription	-11.6761
▁persist	-11.6761
▁pertain	-11.6761
▁petro	-11.6761
▁peusa	-11.6761
▁pex	-11.6761
▁pharm	-11.6761
▁phd	-11.6761
▁phen	-11.6761
▁phenomenal	-11.6761
▁phenylpropanolamine	-11.6761
▁phosphorus	-11.6761
▁photograph	-11.6761
▁phy	-11.6761
▁physic	-11.6761
▁physica	-11.6761
▁pian	-11.6761
▁piay	-11.6761
▁pictorial	-11.6761
▁pieased	-11.6761
▁pierce	-11.6761
▁piggyback	-11.6761
▁pike	-11.6761
▁pin	-11.6761
▁pinkish	-11.6761
▁pinksheets	-11.6761
▁pinnaclegli	-11.6761
▁pinpointing	-11.6761
▁piping	-11.6761
▁pittsburgh	-11.6761
▁pivotal	-11.6761
▁pizza	-11.6761
▁plagiarist	-11.6761
▁plate	-11.6761
▁playboy	-11.6761
▁playmate	-11.6761
▁ple	-11.6761
▁plt	-11.6761
▁pntermin	-11.6761
▁poe	-11.6761
▁poellinger	-11.6761
▁pointed	-11.6761
▁pointing	-11.6761
▁poker	-11.6761
▁polarogram	-11.6761
▁polo	-11.6761
▁popularly	-11.6761
▁por	-11.6761
▁pornography	-11.6761
▁postcode	-11.6761
▁postfix	-11.6761
▁postman	-11.6761
▁postponed	-11.6761
▁pot	-11.6761
▁potboil	-11.6761
▁potency	-11.6761
▁potent	-11.6761
▁pouvez	-11.6761
▁powerhouse	-11.6761
▁powering	-11.6761
▁prakop	-11.6761
▁prefabricate	-11.6761
▁preformatted	-11.6761
▁pregnant	-11.6761
▁prescribe	-11.6761
▁prescrlptlonneeded	-11.6761
▁presenting	-11.6761
▁pressing	-11.6761
▁pretoria	-11.6761
▁preview	-11.6761
▁prick	-11.6761
▁prioritization	-11.6761
▁probusinesstaxes	-11.6761
▁procuring	-11.6761
▁profession	-11.6761
▁professionalism	-11.6761
▁proficient	-11.6761
▁profitability	-11.6761
▁profound	-11.6761
▁programmer	-11.6761
▁prohibition	-11.6761
▁projector	-11.6761
▁promos	-11.6761
▁promote	-11.6761
▁propel	-11.6761
▁proposes	-11.6761
▁prostate	-11.6761
▁protecting	-11.6761
▁proton	-11.6761
▁prowess	-11.6761
▁prreeiscrlpt	-11.6761
▁prudent	-11.6761
▁psc	-11.6761
▁psp	-11.6761
▁puff	-11.6761
▁pulley	-11.6761
▁purple	-11.6761
▁purport	-11.6761
▁purslane	-11.6761
▁pushed	-11.6761
▁pvc	-11.6761
▁pyrimidine	-11.6761
▁python	-11.6761
▁qel	-11.6761
▁qsl	-11.6761
▁qslw	-11.6761
▁qty	-11.6761
▁qtys	-11.6761
▁quadruple	-11.6761
▁quasicontinuous	-11.6761
▁query	-11.6761
▁questionaire	-11.6761
▁questionnaire	-11.6761
▁quicksilver	-11.6761
▁quired	-11.6761
▁quo	-11.6761
▁rachael	-11.6761
▁radical	-11.6761
▁radius	-11.6761
▁rae	-11.6761
▁ragayle	-11.6761
▁raheem	-11.6761
▁raising	-11.6761
▁ramp	-11.6761
▁rampart	-11.6761
▁randal	-11.6761
▁rapidly	-11.6761
▁ratified	-11.6761
▁ratify	-11.6761
▁rayment	-11.6761
▁reaily	-11.6761
▁realignment	-11.6761
▁realistic	-11.6761
▁realiy	-11.6761
▁reallocates	-11.6761
▁rebelled	-11.6761
▁reboot	-11.6761
▁rebound	-11.6761
▁rebuild	-11.6761
▁receiver	-11.6761
▁recipe	-11.6761
▁reck	-11.6761
▁recommends	-11.6761
▁reconfirm	-11.6761
▁recruited	-11.6761
▁recruiter	-11.6761
▁rectiions	-11.6761
▁recurring	-11.6761
▁redeemed	-11.6761
▁redistribute	-11.6761
▁reel	-11.6761
▁refined	-11.6761
▁refuse	-11.6761
▁refusing	-11.6761
▁rein	-11.6761
▁reinforce	-11.6761
▁relies	-11.6761
▁relieve	-11.6761
▁religion	-11.6761
▁reman	-11.6761
▁remembered	-11.6761
▁reminded	-11.6761
▁renegotiable	-11.6761
▁renewal	-11.6761
▁rent	-11.6761
▁repay	-11.6761
▁repeat	-11.6761
▁replacing	-11.6761
▁reputation	-11.6761
▁requiring	-11.6761
▁requisition	-11.6761
▁resale	-11.6761
▁resent	-11.6761
▁resently	-11.6761
▁reservoir	-11.6761
▁resigns	-11.6761
▁responding	-11.6761
▁responsibilites	-11.6761
▁retains	-11.6761
▁retouching	-11.6761
▁retro	-11.6761
▁revealing	-11.6761
▁reverse	-11.6761
▁rewritten	-11.6761
▁rgds	-11.6761
▁rhett	-11.6761
▁rhone	-11.6761
▁ribed	-11.6761
▁rigorous	-11.6761
▁rika	-11.6761
▁ril	-11.6761
▁ription	-11.6761
▁rmacy	-11.6761
▁rmm	-11.6761
▁rms	-11.6761
▁roadster	-11.6761
▁roar	-11.6761
▁rocher	-11.6761
▁rochester	-11.6761
▁rod	-11.6761
▁rollup	-11.6761
▁romanquot	-11.6761
▁roose	-11.6761
▁root	-11.6761
▁rostant	-11.6761
▁roved	-11.6761
▁rpm	-11.6761
▁rua	-11.6761
▁rub	-11.6761
▁rubin	-11.6761
▁ruffle	-11.6761
▁ruin	-11.6761
▁rumple	-11.6761
▁rune	-11.6761
▁rush	-11.6761
▁rusk	-11.6761
▁rye	-11.6761
▁safer	-11.6761
▁sager	-11.6761
▁sail	-11.6761
▁sailboat	-11.6761
▁sailor	-11.6761
▁sake	-11.6761
▁salami	-11.6761
▁salesman	-11.6761
▁salina	-11.6761
▁sandpaper	-11.6761
▁santiago	-11.6761
▁saskatchewan	-11.6761
▁satisfactiionnss	-11.6761
▁sattler	-11.6761
▁sav	-11.6761
▁savimbi	-11.6761
▁savvy	-11.6761
▁saxon	-11.6761
▁saxony	-11.6761
▁scam	-11.6761
▁scan	-11.6761
▁schnorbach	-11.6761
▁schrab	-11.6761
▁scientist	-11.6761
▁scope	-11.6761
▁scot	-11.6761
▁scout	-11.6761
▁scription	-11.6761
▁seahawk	-11.6761
▁seamonkey	-11.6761
▁searobin	-11.6761
▁sears	-11.6761
▁secretly	-11.6761
▁secular	-11.6761
▁seeker	-11.6761
▁sekse	-11.6761
▁selectric	-11.6761
▁sengupta	-11.6761
▁ser	-11.6761
▁sha	-11.6761
▁sharehoiders	-11.6761
▁shareware	-11.6761
▁shave	-11.6761
▁shawnee	-11.6761
▁sheep	-11.6761
▁sheeren	-11.6761
▁shelby	-11.6761
▁shine	-11.6761
▁shirk	-11.6761
▁shocking	-11.6761
▁shooting	-11.6761
▁shorted	-11.6761
▁shorter	-11.6761
▁shortwav	-11.6761
▁shout	-11.6761
▁shred	-11.6761
▁shults	-11.6761
▁shutdown	-11.6761
▁sicilian	-11.6761
▁sid	-11.6761
▁sidearm	-11.6761
▁sideeffects	-11.6761
▁sideway	-11.6761
▁sight	-11.6761
▁sigletos	-11.6761
▁significantiy	-11.6761
▁signup	-11.6761
▁sim	-11.6761
▁simmons	-11.6761
▁simper	-11.6761
▁simulation	-11.6761
▁sine	-11.6761
▁sirpo	-11.6761
▁sits	-11.6761
▁sixtieth	-11.6761
▁skel	-11.6761
▁skeptical	-11.6761
▁ski	-11.6761
▁skyrocket	-11.6761
▁slab	-11.6761
▁slated	-11.6761
▁slid	-11.6761
▁slight	-11.6761
▁slingshot	-11.6761
▁sludge	-11.6761
▁slutty	-11.6761
▁snowmobile	-11.6761
▁soc	-11.6761
▁sock	-11.6761
▁soil	-11.6761
▁solder	-11.6761
▁sorting	-11.6761
▁sour	-11.6761
▁sousa	-11.6761
▁spaceland	-11.6761
▁spacious	-11.6761
▁spanish	-11.6761
▁specialized	-11.6761
▁specified	-11.6761
▁speedy	-11.6761
▁sperry	-11.6761
▁spike	-11.6761
▁spitfire	-11.6761
▁spivey	-11.6761
▁sportswear	-11.6761
▁spouse	-11.6761
▁squeegee	-11.6761
▁sta	-11.6761
▁stable	-11.6761
▁stacie	-11.6761
▁staggering	-11.6761
▁stain	-11.6761
▁standalone	-11.6761
▁standby	-11.6761
▁standpoint	-11.6761
▁stanley	-11.6761
▁stare	-11.6761
▁startac	-11.6761
▁static	-11.6761
▁statistic	-11.6761
▁statistical	-11.6761
▁statistician	-11.6761
▁stats	-11.6761
▁stayed	-11.6761
▁steal	-11.6761
▁stealth	-11.6761
▁sternberg	-11.6761
▁sticking	-11.6761
▁stine	-11.6761
▁stirrup	-11.6761
▁stockroom	-11.6761
▁storey	-11.6761
▁storm	-11.6761
▁stormbound	-11.6761
▁strait	-11.6761
▁strand	-11.6761
▁streaming	-11.6761
▁strenuous	-11.6761
▁stressed	-11.6761
▁string	-11.6761
▁stroboscopic	-11.6761
▁strop	-11.6761
▁struggle	-11.6761
▁sts	-11.6761
▁stuck	-11.6761
▁stud	-11.6761
▁studied	-11.6761
▁stupor	-11.6761
▁sturdy	-11.6761
▁stx	-11.6761
▁substitute	-11.6761
▁suburb	-11.6761
▁succession	-11.6761
▁suffering	-11.6761
▁suffers	-11.6761
▁suggests	-11.6761
▁summarize	-11.6761
▁summarizes	-11.6761
▁summate	-11.6761
▁supplemental	-11.6761
▁supplying	-11.6761
▁suppressor	-11.6761
▁surely	-11.6761
▁surgical	-11.6761
▁survive	-11.6761
▁survived	-11.6761
▁swain	-11.6761
▁swam	-11.6761
▁sway	-11.6761
▁swelling	-11.6761
▁swinging	-11.6761
▁swinney	-11.6761
▁switchboard	-11.6761
▁switched	-11.6761
▁switching	-11.6761
▁sydney	-11.6761
▁sylvan	-11.6761
▁symptom	-11.6761
▁synergy	-11.6761
▁systematically	-11.6761
▁tackle	-11.6761
▁tactic	-11.6761
▁tahmoor	-11.6761
▁takeover	-11.6761
▁talented	-11.6761
▁tammi	-11.6761
▁tammie	-11.6761
▁tandem	-11.6761
▁tanya	-11.6761
▁tao	-11.6761
▁taskpane	-11.6761
▁taunt	-11.6761
▁tdk	-11.6761
▁tds	-11.6761
▁tdtdfont	-11.6761
▁tea	-11.6761
▁teammate	-11.6761
▁teiecommunications	-11.6761
▁teievision	-11.6761
▁telegraphy	-11.6761
▁tema	-11.6761
▁template	-11.6761
▁tenant	-11.6761
▁teresa	-11.6761
▁termine	-11.6761
▁terrorism	-11.6761
▁tesoro	-11.6761
▁tester	-11.6761
▁tetc	-11.6761
▁tetra	-11.6761
▁thatexpress	-11.6761
▁theft	-11.6761
▁theory	-11.6761
▁thereon	-11.6761
▁thirteen	-11.6761
▁thither	-11.6761
▁thm	-11.6761
▁threat	-11.6761
▁threw	-11.6761
▁thud	-11.6761
▁thumb	-11.6761
▁tibco	-11.6761
▁ticketing	-11.6761
▁timeliness	-11.6761
▁timeshare	-11.6761
▁tiny	-11.6761
▁tissto	-11.6761
▁titoni	-11.6761
▁tock	-11.6761
▁tommorrow	-11.6761
▁tone	-11.6761
▁toner	-11.6761
▁torrent	-11.6761
▁toss	-11.6761
▁touchtone	-11.6761
▁towhee	-11.6761
▁townsend	-11.6761
▁tracy	-11.6761
▁tradition	-11.6761
▁tragedian	-11.6761
▁tram	-11.6761
▁transform	-11.6761
▁translated	-11.6761
▁transporter	-11.6761
▁transporting	-11.6761
▁trash	-11.6761
▁traveling	-11.6761
▁tricoli	-11.6761
▁trillion	-11.6761
▁tripp	-11.6761
▁troubled	-11.6761
▁trtdimg	-11.6761
▁trustful	-11.6761
▁tsang	-11.6761
▁tsteel	-11.6761
▁tsx	-11.6761
▁tten	-11.6761
▁tues	-11.6761
▁tung	-11.6761
▁tussioneex	-11.6761
▁tva	-11.6761
▁tweak	-11.6761
▁tycholiz	-11.6761
▁typ	-11.6761
▁typescript	-11.6761
▁typical	-11.6761
▁typo	-11.6761
▁udog	-11.6761
▁unattended	-11.6761
▁uncover	-11.6761
▁uncovered	-11.6761
▁underpaid	-11.6761
▁undertake	-11.6761
▁undervaiued	-11.6761
▁unforgettable	-11.6761
▁unk	-11.6761
▁unlawful	-11.6761
▁unocal	-11.6761
▁unparalleled	-11.6761
▁unproductive	-11.6761
▁unsatisfied	-11.6761
▁unsecured	-11.6761
▁unseen	-11.6761
▁unserer	-11.6761
▁unshipped	-11.6761
▁unsure	-11.6761
▁untill	-11.6761
▁upgradeable	-11.6761
▁upgrading	-11.6761
▁urgency	-11.6761
▁userid	-11.6761
▁utica	-11.6761
▁vacheron	-11.6761
▁vachuska	-11.6761
▁valentin	-11.6761
▁valenzuela	-11.6761
▁validity	-11.6761
▁valliuum	-11.6761
▁valving	-11.6761
▁vanadium	-11.6761
▁vargas	-11.6761
▁variable	-11.6761
▁varying	-11.6761
▁vault	-11.6761
▁velrx	-11.6761
▁venue	-11.6761
▁verb	-11.6761
▁verbal	-11.6761
▁verdant	-11.6761
▁verifying	-11.6761
▁vermont	-11.6761
▁versace	-11.6761
▁vgr	-11.6761
▁viable	-11.6761
▁viagraa	-11.6761
▁vidor	-11.6761
▁vietnam	-11.6761
▁viiagrra	-11.6761
▁vince	-11.6761
▁vinson	-11.6761
▁violation	-11.6761
▁vip	-11.6761
▁vista	-11.6761
▁vital	-11.6761
▁vitality	-11.6761
▁vitr	-11.6761
▁vivian	-11.6761
▁vla	-11.6761
▁vladimir	-11.6761
▁vlag	-11.6761
▁vlagr	-11.6761
▁vlagrra	-11.6761
▁vldeo	-11.6761
▁vlink	-11.6761
▁vlm	-11.6761
▁vogler	-11.6761
▁void	-11.6761
▁vollmering	-11.6761
▁volpe	-11.6761
▁voltage	-11.6761
▁vor	-11.6761
▁vos	-11.6761
▁voting	-11.6761
▁wagon	-11.6761
▁wan	-11.6761
▁warren	-11.6761
▁washbowl	-11.6761
▁watched	-11.6761
▁waterbury	-11.6761
▁wavefrtl	-11.6761
▁wean	-11.6761
▁webmail	-11.6761
▁webpage	-11.6761
▁wedded	-11.6761
▁wei	-11.6761
▁welcoming	-11.6761
▁werwer	-11.6761
▁wesley	-11.6761
▁westonia	-11.6761
▁wharf	-11.6761
▁whatsoever	-11.6761
▁wheat	-11.6761
▁wheel	-11.6761
▁wherever	-11.6761
▁whimper	-11.6761
▁whirligig	-11.6761
▁whistle	-11.6761
▁whooping	-11.6761
▁wid	-11.6761
▁wildest	-11.6761
▁windbreak	-11.6761
▁winder	-11.6761
▁wining	-11.6761
▁winnie	-11.6761
▁wipe	-11.6761
▁wisdom	-11.6761
▁withdraw	-11.6761
▁withdrew	-11.6761
▁wolf	-11.6761
▁wong	-11.6761
▁woodrow	-11.6761
▁woodsmith	-11.6761
▁workgroup	-11.6761
▁workload	-11.6761
▁workman	-11.6761
▁worn	-11.6761
▁worried	-11.6761
▁worst	-11.6761
▁worthington	-11.6761
▁wrath	-11.6761
▁wsllhk	-11.6761
▁wtx	-11.6761
▁wurmb	-11.6761
▁wynn	-11.6761
▁wysk	-11.6761
▁xana	-11.6761
▁xcelerator	-11.6761
▁xgal	-11.6761
▁xnx	-11.6761
▁xpp	-11.6761
▁xstrata	-11.6761
▁xxx	-11.6761
▁xxxx	-11.6761
▁yang	-11.6761
▁yeager	-11.6761
▁yellowish	-11.6761
▁yeverino	-11.6761
▁yield	-11.6761
▁youour	-11.6761
▁zap	-11.6761
▁zip	-11.6761
▁zively	-11.6761
▁zko	-11.6761
▁zoloft	-11.6761
▁zonewww	-11.6761
▁zwiers	-11.6761
▁000000000049773	-12.0816
▁0005	-12.0816
▁0008	-12.0816
▁0010	-12.0816
▁0025	-12.0816
▁0033	-12.0816
▁006600	-12.0816
▁011	-12.0816
▁02010207	-12.0816
▁021	-12.0816
▁025648	-12.0816
▁03090806	-12.0816
▁031	-12.0816
▁0324	-12.0816
▁033	-12.0816
▁0347	-12.0816
▁0357	-12.0816
▁036	-12.0816
▁0363	-12.0816
▁0373	-12.0816
▁0413	-12.0816
▁0416	-12.0816
▁042	-12.0816
▁043	-12.0816
▁046	-12.0816
▁048	-12.0816
▁049	-12.0816
▁0505	-12.0816
▁0506	-12.0816
▁054	-12.0816
▁058	-12.0816
▁084	-12.0816
▁092	-12.0816
▁0980439	-12.0816
▁0984273	-12.0816
▁0984284	-12.0816
▁0986315	-12.0816
▁0986892	-12.0816
▁0987283	-12.0816
▁1001	-12.0816
▁1010	-12.0816
▁101522	-12.0816
▁101530	-12.0816
▁1031	-12.0816
▁104210	-12.0816
▁1044	-12.0816
▁10502	-12.0816
▁1052	-12.0816
▁105633	-12.0816
▁109925	-12.0816
▁1113	-12.0816
▁1130	-12.0816
▁113050	-12.0816
▁1132	-12.0816
▁11500	-12.0816
▁1165	-12.0816
▁117848	-12.0816
▁1181	-12.0816
▁1188	-12.0816
▁120000	-12.0816
▁12079	-12.0816
▁120891	-12.0816
▁1233	-12.0816
▁1239190	-12.0816
▁124400	-12.0816
▁1250	-12.0816
▁12500	-12.0816
▁125066	-12.0816
▁125783	-12.0816
▁125895	-12.0816
▁126358	-12.0816
▁12782	-12.0816
▁1283944723085771570	-12.0816
▁1290	-12.0816
▁13000	-12.0816
▁131	-12.0816
▁131720	-12.0816
▁133257	-12.0816
▁133304	-12.0816
▁1334	-12.0816
▁135664	-12.0816
▁136222	-12.0816
▁137	-12.0816
▁1372	-12.0816
▁137205	-12.0816
▁137595	-12.0816
▁138233	-12.0816
▁138544	-12.0816
▁138553	-12.0816
▁138572	-12.0816
▁138658	-12.0816
▁139066	-12.0816
▁139067	-12.0816
▁139363	-12.0816
▁1399	-12.0816
▁14051	-12.0816
▁141186	-12.0816
▁1416	-12.0816
▁141691	-12.0816
▁141877	-12.0816
▁141884	-12.0816
▁142	-12.0816
▁1429	-12.0816
▁14300	-12.0816
▁1436	-12.0816
▁143974	-12.0816
▁1454	-12.0816
▁1462	-12.0816
▁14689	-12.0816
▁147092	-12.0816
▁1472	-12.0816
▁148391	-12.0816
▁1485	-12.0816
▁1488	-12.0816
▁1489	-12.0816
▁1491	-12.0816
▁150325	-12.0816
▁1506	-12.0816
▁153864	-12.0816
▁154608	-12.0816
▁1550	-12.0816
▁155118	-12.0816
▁156	-12.0816
▁156292	-12.0816
▁156658	-12.0816
▁157	-12.0816
▁157572	-12.0816
▁1587	-12.0816
▁1600	-12.0816
▁1603	-12.0816
▁162	-12.0816
▁16259	-12.0816
▁1658245	-12.0816
▁166	-12.0816
▁16840862	-12.0816
▁16884	-12.0816
▁169625	-12.0816
▁17054701	-12.0816
▁1707	-12.0816
▁173	-12.0816
▁17342	-12.0816
▁174	-12.0816
▁175054701	-12.0816
▁1755	-12.0816
▁1774	-12.0816
▁178	-12.0816
▁1781	-12.0816
▁1789	-12.0816
▁18002800	-12.0816
▁181	-12.0816
▁1821286385673216	-12.0816
▁1835	-12.0816
▁184	-12.0816
▁1848	-12.0816
▁186	-12.0816
▁1894	-12.0816
▁19087	-12.0816
▁1910	-12.0816
▁1921	-12.0816
▁1927	-12.0816
▁1930	-12.0816
▁1938	-12.0816
▁194	-12.0816
▁195	-12.0816
▁19500	-12.0816
▁196	-12.0816
▁1963	-12.0816
▁1968	-12.0816
▁1969	-12.0816
▁1972	-12.0816
▁1977	-12.0816
▁1978	-12.0816
▁1979	-12.0816
▁1987	-12.0816
▁1994	-12.0816
▁20000813	-12.0816
▁20040929124340	-12.0816
▁2008	-12.0816
▁2010	-12.0816
▁201470	-12.0816
▁2015	-12.0816
▁2050	-12.0816
▁2080774744588021497	-12.0816
▁2118	-12.0816
▁21212121	-12.0816
▁2157	-12.0816
▁21667	-12.0816
▁2186	-12.0816
▁222051	-12.0816
▁222215	-12.0816
▁2234	-12.0816
▁22500	-12.0816
▁2259	-12.0816
▁2275	-12.0816
▁229316	-12.0816
▁229490	-12.0816
▁229501	-12.0816
▁229532	-12.0816
▁229535	-12.0816
▁229541	-12.0816
▁229575	-12.0816
▁229586	-12.0816
▁2296	-12.0816
▁229609	-12.0816
▁232	-12.0816
▁2341930101	-12.0816
▁238	-12.0816
▁2392	-12.0816
▁240384	-12.0816
▁2419	-12.0816
▁2448	-12.0816
▁24565	-12.0816
▁246408	-12.0816
▁249208	-12.0816
▁250237	-12.0816
▁252776	-12.0816
▁253	-12.0816
▁2533360	-12.0816
▁2533361	-12.0816
▁2540	-12.0816
▁255126003	-12.0816
▁257	-12.0816
▁257141	-12.0816
▁259208	-12.0816
▁2597	-12.0816
▁2599	-12.0816
▁264	-12.0816
▁2653	-12.0816
▁2662	-12.0816
▁26687	-12.0816
▁2675	-12.0816
▁26879	-12.0816
▁2698	-12.0816
▁27002	-12.0816
▁27003	-12.0816
▁271	-12.0816
▁27117	-12.0816
▁2714	-12.0816
▁273	-12.0816
▁274	-12.0816
▁274772	-12.0816
▁276494	-12.0816
▁280	-12.0816
▁2800	-12.0816
▁2813	-12.0816
▁281540	-12.0816
▁283939	-12.0816
▁2845	-12.0816
▁285350	-12.0816
▁286824	-12.0816
▁289396	-12.0816
▁2910	-12.0816
▁29162	-12.0816
▁292249	-12.0816
▁294	-12.0816
▁304	-12.0816
▁30506	-12.0816
▁306	-12.0816
▁307	-12.0816
▁310830	-12.0816
▁3127	-12.0816
▁313	-12.0816
▁31411	-12.0816
▁314854	-12.0816
▁315329	-12.0816
▁3167	-12.0816
▁3173	-12.0816
▁31787	-12.0816
▁31801	-12.0816
▁31939	-12.0816
▁3209	-12.0816
▁3210	-12.0816
▁325550	-12.0816
▁326	-12.0816
▁328065070852030413	-12.0816
▁330067	-12.0816
▁33431	-12.0816
▁334995	-12.0816
▁3366	-12.0816
▁336925	-12.0816
▁3425	-12.0816
▁344	-12.0816
▁3446	-12.0816
▁34536380986	-12.0816
▁34544	-12.0816
▁347	-12.0816
▁348446	-12.0816
▁348951	-12.0816
▁3497	-12.0816
▁3500	-12.0816
▁35000	-12.0816
▁3507	-12.0816
▁3509	-12.0816
▁35231	-12.0816
▁35375	-12.0816
▁35578	-12.0816
▁35796	-12.0816
▁35985	-12.0816
▁361155	-12.0816
▁3617	-12.0816
▁362921	-12.0816
▁3665	-12.0816
▁36832	-12.0816
▁37008	-12.0816
▁3703	-12.0816
▁37049	-12.0816
▁37059	-12.0816
▁37159	-12.0816
▁373	-12.0816
▁37649	-12.0816
▁378	-12.0816
▁38092	-12.0816
▁383	-12.0816
▁386	-12.0816
▁3880	-12.0816
▁391119	-12.0816
▁391125	-12.0816
▁392	-12.0816
▁39222	-12.0816
▁3923	-12.0816
▁394798	-12.0816
▁39525	-12.0816
▁3959	-12.0816
▁39643	-12.0816
▁39809	-12.0816
▁399763	-12.0816
▁399773	-12.0816
▁399797	-12.0816
▁399814	-12.0816
▁39995	-12.0816
▁40004000	-12.0816
▁40005000	-12.0816
▁4008168168	-12.0816
▁403367	-12.0816
▁40732	-12.0816
▁4120	-12.0816
▁41298	-12.0816
▁4133	-12.0816
▁4135576	-12.0816
▁4149	-12.0816
▁415267	-12.0816
▁4157	-12.0816
▁416019	-12.0816
▁418429	-12.0816
▁418431	-12.0816
▁418432	-12.0816
▁418434	-12.0816
▁418436	-12.0816
▁4191	-12.0816
▁42004	-12.0816
▁421	-12.0816
▁421859	-12.0816
▁4222	-12.0816
▁423	-12.0816
▁425	-12.0816
▁427	-12.0816
▁4284	-12.0816
▁431	-12.0816
▁4311	-12.0816
▁4314	-12.0816
▁43142	-12.0816
▁4319	-12.0816
▁434	-12.0816
▁438	-12.0816
▁440093	-12.0816
▁4404	-12.0816
▁44177	-12.0816
▁444125680216	-12.0816
▁4446	-12.0816
▁4449	-12.0816
▁446	-12.0816
▁447	-12.0816
▁447040101817	-12.0816
▁447092807619	-12.0816
▁448	-12.0816
▁452475	-12.0816
▁453067	-12.0816
▁4535	-12.0816
▁45721	-12.0816
▁4612	-12.0816
▁4664	-12.0816
▁4685	-12.0816
▁4688	-12.0816
▁4745	-12.0816
▁479	-12.0816
▁484934	-12.0816
▁487588	-12.0816
▁488	-12.0816
▁4912	-12.0816
▁494	-12.0816
▁495	-12.0816
▁497	-12.0816
▁500668	-12.0816
▁502952	-12.0816
▁507	-12.0816
▁508	-12.0816
▁508426	-12.0816
▁509	-12.0816
▁5191	-12.0816
▁523	-12.0816
▁5244	-12.0816
▁5266	-12.0816
▁527	-12.0816
▁5288	-12.0816
▁530002	-12.0816
▁533	-12.0816
▁535132	-12.0816
▁5365	-12.0816
▁539	-12.0816
▁541	-12.0816
▁541123	-12.0816
▁5467	-12.0816
▁5500	-12.0816
▁555125680213	-12.0816
▁5553	-12.0816
▁5576	-12.0816
▁5579	-12.0816
▁5593	-12.0816
▁563	-12.0816
▁566	-12.0816
▁5666	-12.0816
▁567	-12.0816
▁5691	-12.0816
▁5705	-12.0816
▁57341	-12.0816
▁5810	-12.0816
▁5824	-12.0816
▁58381	-12.0816
▁5839	-12.0816
▁586	-12.0816
▁586534	-12.0816
▁590	-12.0816
▁5901	-12.0816
▁5910	-12.0816
▁5921185022256	-12.0816
▁5968	-12.0816
▁5969	-12.0816
▁597	-12.0816
▁5971	-12.0816
▁598934	-12.0816
▁598958	-12.0816
▁6027	-12.0816
▁604	-12.0816
▁604056	-12.0816
▁6057	-12.0816
▁6084	-12.0816
▁611178	-12.0816
▁6203	-12.0816
▁6284	-12.0816
▁631403	-12.0816
▁631437	-12.0816
[...]
